<unk>	0.0
<s>	0.0
</s>	0.0
/	-1.4350301027297974
.	-2.7840514183044434
_	-2.938589334487915
-	-3.048699140548706
modules	-3.7092931270599365
node	-4.0293779373168945
js	-4.423939228057861
▁	-4.488757610321045
java	-5.007779598236084
src	-5.017637729644775
▁src	-5.179032325744629
▁node	-5.240405559539795
babel	-5.262477397918701
s	-5.351001739501953
test	-5.490601539611816
es	-5.554304599761963
core	-5.593432903289795
c	-5.597140789031982
main	-5.678831100463867
html	-5.738191604614258
json	-5.738314628601074
lib	-5.7674479484558105
h	-5.810616970062256
2	-5.854679584503174
png	-5.869234085083008
php	-5.959343433380127
org	-5.960501670837402
com	-6.037518501281738
d	-6.052345275878906
f	-6.189276695251465
laravel	-6.223353862762451
elixir	-6.23312520980835
py	-6.248046398162842
1	-6.262784481048584
3	-6.266986846923828
plugin	-6.279552459716797
r	-6.301070213317871
txt	-6.304937839508057
go	-6.343972206115723
a	-6.450127601623535
data	-6.451849937438965
app	-6.52697229385376
transform	-6.528867721557617
▁objects	-6.532543659210205
x	-6.542685031890869
e	-6.543084621429443
static	-6.553025722503662
templates	-6.559199810028076
v	-6.562156677246094
md	-6.563678741455078
preset	-6.567227363586426
xml	-6.570438385009766
lodash	-6.596560955047607
images	-6.610206604003906
cs	-6.633459568023682
cpp	-6.638007164001465
4	-6.660514831542969
▁vendor	-6.6637959480285645
2015/	-6.6644415855407715
plugins	-6.667165756225586
index	-6.669773101806641
i	-6.711962699890137
b	-6.712790012359619
2015-	-6.740794658660889
7	-6.7628583908081055
tests	-6.794816970825195
n	-6.794976711273193
css	-6.816603183746338
build	-6.819838523864746
▁public	-6.825098991394043
▁app	-6.826968193054199
ui	-6.828388690948486
react	-6.858268737792969
▁s	-6.877519607543945
Test	-6.890207767486572
resources	-6.903624057769775
runtime	-6.91378116607666
coda	-6.916342735290527
exp	-6.932491779327393
g	-6.9515862464904785
m	-6.985714912414551
assets	-6.991817951202393
api	-7.004249572753906
include	-7.012151718139648
5	-7.044061660766602
library	-7.076524257659912
D	-7.07852840423584
benchmark	-7.089725017547607
components	-7.0956645011901855
github	-7.115914821624756
18	-7.136326313018799
▁result	-7.138339996337891
6	-7.163519859313965
t	-7.18076229095459
▁lib	-7.188087463378906
source	-7.191410541534424
server	-7.194186687469482
web	-7.201235771179199
map	-7.208581447601318
rb	-7.210782527923584
▁docs	-7.224555015563965
0	-7.226523399353027
8	-7.250429630279541
ts	-7.256191730499268
client	-7.265734672546387
config	-7.270261287689209
package	-7.276675701141357
content	-7.277292251586914
gulp	-7.28391695022583
vendor	-7.291194438934326
jpg	-7.309627532958984
common	-7.320202827453613
p	-7.330136775970459
/@	-7.33661413192749
android	-7.349939346313477
db	-7.367224216461182
lady	-7.368304252624512
krakow	-7.369194030761719
ozk	-7.3694233894348145
hpp	-7.390448093414307
40	-7.395169258117676
icons	-7.423337936401367
base	-7.434471607208252
class	-7.437077045440674
io	-7.4371771812438965
util	-7.44650936126709
res	-7.458467483520508
bower	-7.464426517486572
views	-7.4657745361328125
array	-7.475789546966553
tools	-7.48531436920166
▁Source	-7.495425701141357
po	-7.510883331298828
internal	-7.5277557373046875
o	-7.536889553070068
min	-7.537145614624023
classes	-7.546542167663574
cache	-7.547747611999512
sass	-7.554569244384766
S	-7.570314407348633
net	-7.572834491729736
Resources	-7.579742431640625
themes	-7.583672523498535
▁tests	-7.588068962097168
9	-7.591493606567383
template	-7.596806526184082
less	-7.59706974029541
2.	-7.602999687194824
types	-7.608890056610107
j	-7.640357494354248
doc	-7.644393444061279
▁test	-7.6471848487854
is	-7.649750232696533
python	-7.652244567871094
▁build	-7.6579179763793945
Tests	-7.663240432739258
▁wp	-7.672965049743652
pl	-7.6750078201293945
lang	-7.6762800216674805
sdk	-7.683724403381348
so	-7.687198638916016
er	-7.6882548332214355
www	-7.689745903015137
string	-7.705597877502441
fn	-7.709296226501465
boost	-7.711909294128418
request	-7.7140583992004395
object	-7.718252658843994
to	-7.720819473266602
packages	-7.722345352172852
docs	-7.722682952880859
bootstrap	-7.727663993835449
libs	-7.734011173248291
storybook	-7.736283302307129
ing	-7.743286609649658
ed	-7.7434983253479
ne	-7.745449542999268
in	-7.746934413909912
fp	-7.749966144561768
model	-7.7516255378723145
en	-7.756269454956055
README	-7.757211208343506
▁drivers	-7.775824546813965
6.	-7.796021461486816
code	-7.801008224487305
1.	-7.803348064422607
cc	-7.806100845336914
▁webapp	-7.81461763381958
k	-7.827215194702148
google	-7.8286967277526855
jquery	-7.8301100730896
Gaussian	-7.8305816650390625
scss	-7.832326889038086
admin	-7.835716724395752
browser	-7.836631774902344
compiler	-7.842233180999756
Uniform	-7.842825889587402
files	-7.849620342254639
sStudy	-7.849926471710205
aBenchmark	-7.850906848907471
scala	-7.851051330566406
htm	-7.859686851501465
svg	-7.8652215003967285
img	-7.870203495025635
spec	-7.878666400909424
C	-7.878792762756348
text	-7.882309913635254
de	-7.8824334144592285
Data	-7.883542060852051
site	-7.888698577880859
tiles	-7.889199733734131
Core	-7.890442371368408
http	-7.909776210784912
view	-7.910476207733154
yml	-7.9124436378479
page	-7.912940502166748
eigen	-7.915511608123779
lanum	-7.92795467376709
cordova	-7.931395053863525
var	-7.934989929199219
examples	-7.936136245727539
stream	-7.943220615386963
npm	-7.94522762298584
10	-7.945616722106934
webapp	-7.946663856506348
service	-7.949442386627197
style	-7.965569972991943
▁db	-7.965902805328369
editor	-7.968587875366211
all	-7.985139846801758
properties	-7.986006736755371
sh	-7.986385822296143
ionic	-7.986884593963623
meta	-7.991785049438477
public	-7.992865085601807
utils	-8.000733375549316
dev	-8.002203941345215
theme	-8.012669563293457
features	-8.0195894241333
oracle	-8.019706726074219
angular	-8.020566940307617
drivers	-8.0218505859375
share	-8.028743743896484
▁core	-8.029048919677734
y	-8.030346870422363
l	-8.033252716064453
image	-8.03616714477539
Assets	-8.036882400512695
models	-8.039082527160645
raw	-8.040895462036133
T	-8.043008804321289
ckeditor	-8.046060562133789
arch	-8.052560806274414
apache	-8.05399227142334
services	-8.056708335876465
Source	-8.057767868041992
mpk	-8.060583114624023
aktual	-8.062981605529785
scripts	-8.066617012023926
native	-8.073514938354492
helper	-8.075340270996094
file	-8.07726764678955
I	-8.077473640441895
default	-8.09829330444336
icon	-8.111372947692871
bin	-8.114952087402344
gif	-8.121899604797363
ext	-8.122121810913086
list	-8.12241268157959
sync	-8.128670692443848
q	-8.141910552978516
help	-8.152029037475586
media	-8.166773796081543
Service	-8.16822338104248
32	-8.168448448181152
▁web	-8.16869068145752
sql	-8.169853210449219
impl	-8.173089981079102
▁order	-8.176156044006348
locale	-8.178732872009277
5-	-8.179162979125977
6-	-8.179917335510254
integration	-8.181418418884277
LICENSE	-8.182329177856445
eclipse	-8.18431568145752
user	-8.186172485351562
▁ajax	-8.18779468536377
arm	-8.190635681152344
comment	-8.193522453308105
example	-8.196186065673828
function	-8.203293800354004
controller	-8.208568572998047
linux	-8.213072776794434
u	-8.224610328674316
demo	-8.227123260498047
generated	-8.234321594238281
contrib	-8.2395601272583
▁Documentation	-8.244171142578125
A	-8.246047973632812
▁angular	-8.255230903625488
metadata	-8.259087562561035
3.	-8.262528419494629
zips	-8.263419151306152
indivisible	-8.263659477233887
get	-8.264201164245605
R	-8.26745891571045
grunt	-8.268983840942383
App	-8.269453048706055
math	-8.272645950317383
▁plugins	-8.273031234741211
Contents	-8.275775909423828
oci	-8.27728271484375
parser	-8.27812385559082
event	-8.278741836547852
maps	-8.28710651397705
log	-8.288738250732422
vm	-8.29210376739502
search	-8.293301582336426
Controller	-8.293987274169922
dir	-8.299036026000977
info	-8.301332473754883
name	-8.313950538635254
lite	-8.315056800842285
on	-8.31854248046875
deps	-8.321022987365723
Model	-8.323760986328125
▁data	-8.330121040344238
Web	-8.332168579101562
framework	-8.339430809020996
set	-8.353407859802246
fs	-8.361029624938965
platforms	-8.36801815032959
F	-8.371232986450195
0.	-8.376511573791504
View	-8.377328872680664
11	-8.37821102142334
it	-8.378314018249512
platform	-8.379541397094727
of	-8.38441276550293
form	-8.393763542175293
testing	-8.394057273864746
module	-8.397334098815918
stop	-8.399190902709961
time	-8.400299072265625
E	-8.400431632995605
project	-8.401095390319824
▁apps	-8.401104927062988
init	-8.401226043701172
▁arch	-8.404054641723633
w	-8.408742904663086
Config	-8.408899307250977
ic	-8.412364959716797
no	-8.413890838623047
z	-8.417200088500977
asm	-8.418334007263184
▁doc	-8.44566822052002
django	-8.446415901184082
inc	-8.448123931884766
support	-8.452770233154297
update	-8.458966255187988
block	-8.463088989257812
_8	-8.463294982910156
▁cpp	-8.463486671447754
Practica	-8.463725090026855
▁material	-8.465325355529785
tags	-8.46579647064209
linkedm	-8.470065116882324
create	-8.47208309173584
dist	-8.475457191467285
▁Assets	-8.476880073547363
yaml	-8.478910446166992
M	-8.484740257263184
schedule	-8.485652923583984
▁projects	-8.487866401672363
Makefile	-8.492711067199707
unit	-8.492951393127441
N	-8.496369361877441
aws	-8.499310493469238
jsx	-8.50036334991455
merge	-8.500713348388672
re	-8.50162410736084
bundle	-8.516104698181152
Type	-8.516687393188477
engine	-8.517962455749512
network	-8.519035339355469
fonts	-8.522454261779785
pom	-8.522733688354492
▁libs	-8.523176193237305
B	-8.524829864501953
V	-8.527865409851074
browserify	-8.532806396484375
▁Project	-8.535508155822754
master	-8.540382385253906
jar	-8.542927742004395
G	-8.550065040588379
type	-8.552088737487793
debug	-8.552953720092773
virtual	-8.557538032531738
▁static	-8.561470985412598
layout	-8.564011573791504
graph	-8.564628601074219
P	-8.565979957580566
drawable	-8.567299842834473
table	-8.567925453186035
Exception	-8.57055377960205
ql	-8.571951866149902
▁include	-8.573569297790527
gtfs	-8.575667381286621
Bundle	-8.57603931427002
4.	-8.576228141784668
regex	-8.578152656555176
▁assets	-8.58033561706543
path	-8.58428955078125
security	-8.58448600769043
read	-8.585022926330566
ios	-8.586880683898926
latest	-8.586929321289062
▁res	-8.588930130004883
includes	-8.594351768493652
session	-8.59536075592041
values	-8.598620414733887
mach	-8.599141120910645
ca	-8.600789070129395
Manager	-8.602386474609375
drupal	-8.603784561157227
01	-8.608318328857422
input	-8.612460136413574
▁examples	-8.615837097167969
bootswatch	-8.616277694702148
ads	-8.61983871459961
▁dist	-8.621889114379883
my	-8.626489639282227
mobile	-8.627148628234863
▁Final	-8.629019737243652
J	-8.630176544189453
os	-8.63162612915039
functions	-8.63690185546875
Base	-8.637565612792969
▁resources	-8.639043807983398
▁packages	-8.6396484375
ThumbService	-8.643813133239746
manager	-8.645931243896484
Client	-8.648826599121094
connect	-8.65102481842041
old	-8.651824951171875
party	-8.653266906738281
and	-8.657552719116211
shared	-8.658758163452148
rp	-8.66006088256836
for	-8.664013862609863
open	-8.670903205871582
system	-8.675996780395508
▁wiki	-8.67979907989502
gui	-8.681421279907227
Scripts	-8.681572914123535
rdparty	-8.68224048614502
custom	-8.683531761169434
16	-8.687739372253418
with	-8.688834190368652
al	-8.691566467285156
5.	-8.692072868347168
List	-8.69336986541748
jdk	-8.695611000061035
Common	-8.69672679901123
graalvm	-8.699013710021973
conf	-8.699507713317871
add	-8.700385093688965
link	-8.707106590270996
component	-8.713055610656738
sun	-8.714603424072266
script	-8.72562313079834
X	-8.727492332458496
new	-8.729056358337402
gen	-8.730653762817383
wp	-8.733022689819336
File	-8.733743667602539
rst	-8.735162734985352
detail	-8.741853713989258
store	-8.742844581604004
ar	-8.74318790435791
WebCore	-8.744819641113281
dashboard	-8.74753475189209
helpers	-8.748692512512207
cli	-8.753952980041504
Pods	-8.755659103393555
output	-8.757195472717285
el	-8.757654190063477
▁addons	-8.757742881774902
forum	-8.762906074523926
schema	-8.771768569946289
7.	-8.778566360473633
Plugin	-8.778616905212402
settings	-8.781511306762695
apps	-8.782570838928223
CGAL	-8.782682418823242
ac	-8.785962104797363
CMakeFiles	-8.785993576049805
▁third	-8.792252540588379
htdocs	-8.793798446655273
swift	-8.794097900390625
agent	-8.794974327087402
st	-8.797159194946289
readable	-8.798030853271484
rs	-8.798160552978516
parse	-8.799320220947266
at	-8.802852630615234
symbol	-8.807217597961426
W	-8.807382583618164
video	-8.81178092956543
train	-8.812429428100586
classlib	-8.813516616821289
tmp	-8.816143989562988
actor	-8.81651496887207
14	-8.817736625671387
stable	-8.818596839904785
12	-8.81897258758545
fr	-8.819527626037598
boot	-8.821267127990723
verifycode	-8.82128620147705
out	-8.821725845336914
▁enhanced	-8.822176933288574
cloud	-8.822932243347168
Node	-8.82338809967041
express	-8.823429107666016
alpha	-8.823789596557617
or	-8.827934265136719
async	-8.828536033630371
06	-8.829360008239746
rxjs	-8.831461906433105
traverse	-8.835436820983887
Magento	-8.835912704467773
socket	-8.837564468383789
persistence	-8.839548110961914
Documents	-8.84022331237793
as	-8.840364456176758
04	-8.844303131103516
mo	-8.844383239746094
▁tools	-8.844913482666016
2.7/	-8.84626579284668
us	-8.846381187438965
Info	-8.84809398651123
controllers	-8.854475975036621
UI	-8.857404708862305
▁server	-8.859160423278809
pages	-8.863959312438965
09	-8.864948272705078
menu	-8.865519523620605
rfc	-8.866717338562012
local	-8.86984920501709
styles	-8.870412826538086
filter	-8.87149429321289
caniuse	-8.872320175170898
H	-8.87515926361084
prof	-8.876315116882324
docset	-8.876604080200195
Event	-8.877975463867188
User	-8.878219604492188
global	-8.881413459777832
▁client	-8.88162612915039
kernel	-8.88190746307373
experiments	-8.88357162475586
number	-8.885358810424805
bg	-8.885974884033203
Code	-8.886563301086426
win	-8.888280868530273
20	-8.889452934265137
make	-8.8906888961792
illi	-8.890795707702637
15	-8.891530990600586
osg	-8.891610145568848
la	-8.894156455993652
▁source	-8.894939422607422
INF	-8.895344734191895
builder	-8.895915031433105
un	-8.896819114685059
able	-8.900324821472168
closure	-8.901420593261719
da	-8.901778221130371
actors	-8.902942657470703
pilot	-8.903761863708496
13	-8.90379524230957
▁spec	-8.904077529907227
ietf	-8.905000686645508
Component	-8.907732009887695
postcss	-8.913345336914062
crypto	-8.913422584533691
▁RFC	-8.913535118103027
System	-8.914087295532227
runs	-8.915987014770508
auth	-8.916852951049805
reflect	-8.917073249816895
▁synapse	-8.919804573059082
64	-8.92303466796875
mtur	-8.923388481140137
color	-8.923731803894043
radical	-8.924498558044434
posts	-8.925028800964355
resource	-8.92506217956543
pm	-8.928775787353516
events	-8.929475784301758
sub	-8.930624008178711
game	-8.931293487548828
▁components	-8.932591438293457
staging	-8.937241554260254
▁metadata	-8.939735412597656
storage	-8.941878318786621
font	-8.941971778869629
tag	-8.942403793334961
K	-8.94304370880127
collection	-8.943735122680664
register	-8.946309089660645
pt	-8.946945190429688
ruby	-8.947525024414062
Classes	-8.947900772094727
tree	-8.94932746887207
Map	-8.949894905090332
gyp	-8.950591087341309
Server	-8.95226001739502
Command	-8.95229434967041
up	-8.955878257751465
twig	-8.958824157714844
17	-8.959052085876465
pkg	-8.959376335144043
strings	-8.962955474853516
WebKit	-8.964052200317383
In	-8.965485572814941
Default	-8.965566635131836
▁hotspot	-8.96912670135498
intermediates	-8.975615501403809
id	-8.977888107299805
key	-8.983409881591797
24	-8.983455657958984
Cache	-8.984781265258789
check	-8.987726211547852
▁images	-8.98906135559082
Factory	-8.989173889160156
ru	-8.989832878112793
error	-8.991479873657227
grpc	-8.994677543640137
sys	-8.995060920715332
material	-8.995126724243164
cmake	-8.99755859375
basic	-9.000182151794434
keys	-9.001134872436523
current	-9.0040283203125
coffee	-9.009254455566406
rest	-9.01035213470459
Project	-9.010396003723145
fb	-9.012090682983398
fixtures	-9.012703895568848
administrator	-9.013558387756348
▁W	-9.014028549194336
feature	-9.015359878540039
plot	-9.016813278198242
Library	-9.018600463867188
install	-9.018800735473633
dd	-9.022425651550293
version	-9.022991180419922
be	-9.02313232421875
do	-9.024482727050781
flow	-9.024530410766602
ace	-9.028268814086914
response	-9.028489112854004
regenerator	-9.029352188110352
application	-9.032782554626465
box	-9.032989501953125
man	-9.033123016357422
▁devel	-9.034178733825684
47/	-9.038684844970703
management	-9.039173126220703
sources	-9.039273262023926
Storage	-9.039928436279297
Abstract	-9.041121482849121
To	-9.043277740478516
gems	-9.044464111328125
Form	-9.047036170959473
Object	-9.049420356750488
release	-9.049792289733887
auto	-9.052291870117188
19	-9.052968978881836
Handler	-9.053293228149414
Impl	-9.053369522094727
uglify	-9.05422306060791
ad	-9.054656028747559
database	-9.056976318359375
mac	-9.05958366394043
▁jdk	-9.060393333435059
▁reference	-9.06049919128418
kt	-9.060688018798828
▁sites	-9.06228256225586
control	-9.063169479370117
dom	-9.064148902893066
▁dev	-9.064767837524414
origin	-9.06924057006836
query	-9.071226119995117
Image	-9.072371482849121
co	-9.074756622314453
21	-9.075434684753418
use	-9.076525688171387
extensions	-9.076915740966797
replace	-9.077276229858398
npmignore	-9.079198837280273
button	-9.08032512664795
Debug	-9.081809997558594
ja	-9.082807540893555
action	-9.083932876586914
ng	-9.084738731384277
golang	-9.08602523803711
Action	-9.088274955749512
Filter	-9.089049339294434
openlayers	-9.089892387390137
L	-9.096258163452148
Interface	-9.098282814025879
Editor	-9.098637580871582
grid	-9.102144241333008
home	-9.102866172790527
edit	-9.103514671325684
csv	-9.104923248291016
expected	-9.106559753417969
typed	-9.10722541809082
end	-9.107983589172363
78	-9.1105375289917
run	-9.111149787902832
me	-9.113795280456543
usb	-9.114124298095703
Engine	-9.114545822143555
dll	-9.114950180053711
super	-9.117473602294922
iterator	-9.11916732788086
Interfaces	-9.119219779968262
int	-9.121719360351562
rules	-9.121831893920898
Models	-9.122323036193848
Text	-9.125073432922363
windows	-9.126215934753418
report	-9.127392768859863
qemu	-9.12962532043457
46/	-9.12983226776123
proxy	-9.130163192749023
post	-9.136237144470215
am	-9.136528968811035
multi	-9.136771202087402
Management	-9.138594627380371
mode	-9.140446662902832
Table	-9.141366958618164
symfony	-9.144754409790039
skins	-9.145977020263672
▁application	-9.147092819213867
ro	-9.147526741027832
8.	-9.14971923828125
Builder	-9.150248527526855
Module	-9.152206420898438
lua	-9.15550422668457
Main	-9.156766891479492
parameters	-9.1575927734375
05	-9.157710075378418
field	-9.15967845916748
ps	-9.160539627075195
xx	-9.164109230041504
▁trunk	-9.164580345153809
libraries	-9.164929389953613
nl	-9.166237831115723
ch	-9.166346549987793
Item	-9.166716575622559
csproj	-9.167370796203613
API	-9.16867733001709
simple	-9.170665740966797
+	-9.17104434967041
xercesc	-9.172093391418457
Resource	-9.179176330566406
statsmodels	-9.181849479675293
group	-9.183961868286133
date	-9.18439769744873
Parser	-9.184599876403809
env	-9.188233375549316
10.	-9.18985366821289
cms	-9.189942359924316
Search	-9.190587043762207
cmd	-9.190842628479004
.0.	-9.193166732788086
misc	-9.1932373046875
Configuration	-9.193376541137695
tr	-9.199586868286133
the	-9.200640678405762
Net	-9.201835632324219
liferay	-9.202008247375488
ds	-9.203479766845703
console	-9.205828666687012
O	-9.209946632385254
Page	-9.211498260498047
readme	-9.212725639343262
03	-9.215027809143066
decaf	-9.215229988098145
U	-9.215286254882812
tracers	-9.217110633850098
Template	-9.218610763549805
widget	-9.219564437866211
ee	-9.220237731933594
rc	-9.221214294433594
desktop	-9.22250747680664
electron	-9.22318172454834
obj	-9.225064277648926
Lib	-9.225173950195312
validation	-9.229042053222656
mips	-9.230827331542969
device	-9.230912208557129
select	-9.231369018554688
bindings	-9.232796669006348
zh	-9.233318328857422
systemjs	-9.233611106872559
glob	-9.234678268432617
Framework	-9.23686408996582
▁code	-9.237954139709473
property	-9.238807678222656
line	-9.240107536315918
_1_1_	-9.241000175476074
languages	-9.242466926574707
eslint	-9.243677139282227
erb	-9.24741268157959
javascript	-9.25186824798584
64/	-9.252310752868652
item	-9.25273609161377
Request	-9.252934455871582
language	-9.2532377243042
load	-9.253885269165039
ws	-9.25442123413086
02	-9.254764556884766
ms	-9.254814147949219
arrow	-9.254948616027832
ko	-9.255317687988281
reference	-9.255391120910645
ini	-9.256614685058594
zend	-9.257728576660156
Utils	-9.262529373168945
groovy	-9.263961791992188
doraemonkit	-9.264660835266113
optimize	-9.265819549560547
Message	-9.2659273147583
Ch	-9.266201972961426
Provider	-9.266474723815918
▁backend	-9.270495414733887
sample	-9.271200180053711
define	-9.272316932678223
Microsoft	-9.272523880004883
Demo	-9.272589683532715
Entity	-9.272799491882324
HTML	-9.273408889770508
vb	-9.273482322692871
tsx	-9.27431869506836
tpl	-9.274953842163086
Element	-9.275161743164062
22	-9.275769233703613
Z	-9.276595115661621
only	-9.278377532958984
kit	-9.278542518615723
rebuild	-9.278586387634277
Content	-9.280930519104004
proto	-9.285486221313477
ci	-9.28551197052002
Set	-9.286534309387207
dialogs	-9.290079116821289
logger	-9.290779113769531
layer	-9.293404579162598
git	-9.294645309448242
frontend	-9.29680061340332
ref	-9.297981262207031
rails	-9.298542976379395
amd	-9.299148559570312
▁release	-9.299715995788574
pdf	-9.300246238708496
from	-9.301411628723145
mm	-9.302693367004395
/2.1.0/	-9.30360221862793
mongoose	-9.305564880371094
23	-9.306803703308105
travis	-9.307929039001465
apidocs	-9.308059692382812
analysis	-9.308199882507324
ex	-9.308237075805664
result	-9.310928344726562
light	-9.311277389526367
Settings	-9.311604499816895
WEB	-9.31301498413086
chart	-9.314532279968262
46	-9.31511116027832
Class	-9.315715789794922
xhtml	-9.316093444824219
stylesheets	-9.320881843566895
▁bin	-9.32311725616455
Database	-9.323118209838867
xc	-9.323469161987305
32/	-9.323895454406738
ml	-9.327469825744629
mod	-9.329241752624512
backend	-9.334501266479492
hs	-9.334546089172363
nodemon	-9.33519458770752
fa	-9.335464477539062
MindTouch	-9.336526870727539
_10.0.1	-9.337279319763184
ec	-9.338876724243164
▁library	-9.340431213378906
Input	-9.341375350952148
Context	-9.342470169067383
gradle	-9.342514991760254
mat	-9.343746185302734
Y	-9.344661712646484
Documentation	-9.348240852355957
16.	-9.3486909866333
3.5/	-9.349189758300781
buffer	-9.349848747253418
bb	-9.350924491882324
red	-9.351391792297363
dat	-9.351980209350586
Tools	-9.35204029083252
cross	-9.353353500366211
docroot	-9.356090545654297
Helper	-9.357352256774902
zendframework	-9.361050605773926
28	-9.363569259643555
messages	-9.363737106323242
Util	-9.364593505859375
loader	-9.367642402648926
Properties	-9.368500709533691
pre	-9.369799613952637
product	-9.370095252990723
armnn	-9.370362281799316
validator	-9.370711326599121
Commands	-9.370977401733398
LC	-9.371759414672852
commands	-9.373140335083008
Re	-9.374444007873535
32.	-9.374873161315918
next	-9.377861022949219
▁Current	-9.378068923950195
watch	-9.3799409866333
9.	-9.381596565246582
gl	-9.382261276245117
preadsheeteditor	-9.38236141204834
setup	-9.385252952575684
fsevents	-9.385644912719727
08	-9.387093544006348
command	-9.387472152709961
pbern	-9.388419151306152
sconi	-9.388693809509277
ia	-9.391322135925293
format	-9.393553733825684
le	-9.396321296691895
hw	-9.397601127624512
asset	-9.398131370544434
▁scripts	-9.399490356445312
driver	-9.400849342346191
bar	-9.403024673461914
tasks	-9.404078483581543
Unit	-9.40424919128418
oojs	-9.406621932983398
samples	-9.40892505645752
match	-9.409172058105469
Q	-9.410791397094727
ab	-9.413400650024414
unicode	-9.413680076599121
context	-9.414654731750488
lo	-9.41490650177002
Admin	-9.41504955291748
patch	-9.415349960327148
jade	-9.415461540222168
frame	-9.417580604553223
▁controllers	-9.418113708496094
Extensions	-9.418214797973633
blog	-9.418545722961426
protocol	-9.419532775878906
carbon	-9.419647216796875
header	-9.423230171203613
asio	-9.424882888793945
▁external	-9.42597484588623
ip	-9.427299499511719
goog	-9.42754077911377
folio	-9.427762985229492
Headers	-9.427987098693848
progress	-9.428314208984375
ce	-9.429424285888672
edu	-9.431538581848145
actions	-9.432412147521973
▁3	-9.432621955871582
SNAPSHOT	-9.43504810333252
container	-9.435469627380371
With	-9.435855865478516
mp	-9.436553955078125
ie	-9.436684608459473
▁Android	-9.437438011169434
rate	-9.439852714538574
provider	-9.439977645874023
Name	-9.44098949432373
license	-9.442692756652832
stats	-9.443974494934082
tool	-9.444336891174316
sites	-9.44572925567627
handler	-9.44827938079834
ly	-9.44900894165039
pyc	-9.449546813964844
admission	-9.45150089263916
dark	-9.451726913452148
Block	-9.453632354736328
ant	-9.453848838806152
Api	-9.454258918762207
ba	-9.454327583312988
dm	-9.458635330200195
ion	-9.459080696105957
90	-9.460203170776367
uk	-9.460968017578125
task	-9.461226463317871
_2_	-9.46207332611084
external	-9.462638854980469
awt	-9.464978218078613
eu	-9.465298652648926
pr	-9.465599060058594
has	-9.466048240661621
et	-9.467194557189941
target	-9.467696189880371
an	-9.468316078186035
import	-9.468660354614258
profile	-9.469345092773438
phpunit	-9.470431327819824
suite	-9.471553802490234
Security	-9.472911834716797
Group	-9.47385025024414
policy	-9.47446060180664
snippets	-9.475098609924316
functional	-9.47574520111084
zip	-9.476005554199219
back	-9.478327751159668
MESSAGE	-9.478978157043457
objects	-9.479597091674805
af	-9.480263710021973
rtl	-9.481350898742676
wso	-9.482165336608887
PressPlugin	-9.48330307006836
Layout	-9.483553886413574
Dispatch	-9.48517894744873
Query	-9.485465049743652
Private	-9.485694885253906
generator	-9.486052513122559
pmon	-9.486186981201172
javascripts	-9.486254692077637
se	-9.48710823059082
details	-9.487449645996094
Services	-9.488523483276367
process	-9.488551139831543
message	-9.488584518432617
64.	-9.488670349121094
frozen	-9.488739013671875
flags	-9.489255905151367
esm	-9.490080833435059
Win	-9.490819931030273
Application	-9.491767883300781
instance	-9.492751121520996
babelify	-9.493069648742676
Adapter	-9.494020462036133
Property	-9.495600700378418
Field	-9.495988845825195
mini	-9.496355056762695
errors	-9.4967041015625
cocos	-9.496838569641113
forms	-9.498331069946289
jetpack	-9.499484062194824
world	-9.499960899353027
find	-9.499987602233887
▁google	-9.500276565551758
loopback	-9.500593185424805
SDK	-9.501077651977539
svn	-9.501668930053711
op	-9.5023193359375
dialog	-9.502792358398438
cl	-9.503549575805664
Zend	-9.50648021697998
Get	-9.507513999938965
State	-9.507979393005371
br	-9.509210586547852
registry	-9.509215354919434
Control	-9.50926685333252
$	-9.509313583374023
pro	-9.510825157165527
Example	-9.511750221252441
gpu	-9.512432098388672
commons	-9.513772010803223
Error	-9.513893127441406
big	-9.514947891235352
autoprefixer	-9.515471458435059
fe	-9.516007423400879
01.	-9.516298294067383
url	-9.516749382019043
27	-9.517355918884277
awesome	-9.518037796020508
mysql	-9.518653869628906
if	-9.518880844116211
Activity	-9.519183158874512
right	-9.51933479309082
Standard	-9.520264625549316
router	-9.521891593933105
one	-9.522327423095703
▁Code	-9.522570610046387
Media	-9.523762702941895
nav	-9.525805473327637
▁pkg	-9.526451110839844
internals	-9.526654243469238
work	-9.52746295928955
bd	-9.528719902038574
cd	-9.532588005065918
/5.0.0-	-9.53278636932373
pack	-9.533210754394531
.017119.0002/	-9.533293724060059
Box	-9.533803939819336
▁config	-9.534005165100098
small	-9.534109115600586
2048/	-9.534655570983887
delete	-9.53492546081543
scipy	-9.535639762878418
12.	-9.535775184631348
root	-9.535941123962402
ViewController	-9.536113739013672
hudson	-9.537895202636719
laminas	-9.537895202636719
.35/	-9.538521766662598
Store	-9.538835525512695
tab	-9.539990425109863
swing	-9.540085792541504
war	-9.541558265686035
cpu	-9.541884422302246
extension	-9.542315483093262
beta	-9.542530059814453
notifier	-9.54271125793457
00	-9.543861389160156
lock	-9.54426097869873
tinymce	-9.544593811035156
computed	-9.546217918395996
07	-9.546935081481934
white	-9.546940803527832
Linux	-9.54755973815918
th	-9.548725128173828
cxx	-9.549728393554688
Http	-9.550424575805664
rdParty	-9.550630569458008
logo	-9.551429748535156
sticky	-9.551681518554688
Game	-9.553122520446777
account	-9.554027557373047
-3.1.2/	-9.554348945617676
mout	-9.554839134216309
Reader	-9.55617618560791
regexp	-9.556843757629395
Value	-9.55745792388916
migrate	-9.557548522949219
Auto	-9.558452606201172
display	-9.558749198913574
domain	-9.561467170715332
Generator	-9.561918258666992
70	-9.565875053405762
▁201	-9.567405700683594
punchcard	-9.567414283752441
third	-9.56743335723877
entity	-9.567493438720703
options	-9.567608833312988
moment	-9.567995071411133
expanded	-9.56945514678955
Misc	-9.569659233093262
iOS	-9.570499420166016
ation	-9.570558547973633
Archives	-9.573022842407227
wildfly	-9.576419830322266
demos	-9.577109336853027
pytz	-9.578003883361816
▁sources	-9.579471588134766
loongson	-9.579962730407715
Task	-9.582460403442383
remote	-9.583852767944336
Array	-9.585044860839844
range	-9.585413932800293
Key	-9.588401794433594
icu	-9.58919906616211
order	-9.589282989501953
idea	-9.589727401733398
generic	-9.59054946899414
Add	-9.591328620910645
wrapper	-9.592122077941895
Log	-9.592321395874023
zoneinfo	-9.592344284057617
spring	-9.592493057250977
▁t	-9.592680931091309
host	-9.592905044555664
webpack	-9.594493865966797
zz	-9.594629287719727
tex	-9.594963073730469
▁Support	-9.59618854522705
Tree	-9.598511695861816
_1.	-9.59878158569336
di	-9.599189758300781
gtk	-9.599565505981445
▁game	-9.605615615844727
msm	-9.606502532958984
facebook	-9.609824180603027
ol	-9.609968185424805
scene	-9.610143661499023
29	-9.610457420349121
rt	-9.611072540283203
by	-9.612350463867188
fc	-9.61318588256836
▁tensorflow	-9.615135192871094
tiny	-9.61620044708252
mail	-9.617694854736328
learn	-9.617772102355957
sl	-9.618837356567383
Panel	-9.61991024017334
11.	-9.620179176330566
▁hack	-9.620562553405762
weak	-9.621456146240234
testsuite	-9.622406005859375
cluster	-9.623099327087402
/512/	-9.623603820800781
dc	-9.623727798461914
ff	-9.623902320861816
state	-9.62446403503418
Plugins	-9.624995231628418
Functions	-9.62552547454834
Response	-9.62686824798584
jshint	-9.626996994018555
Images	-9.62721061706543
struct	-9.62928581237793
inquirer	-9.629941940307617
@2	-9.630158424377441
TARGET	-9.630413055419922
43	-9.631196022033691
markdown	-9.632471084594727
qt	-9.633092880249023
ai	-9.633245468139648
wireless	-9.637883186340332
Spec	-9.638361930847168
fd	-9.640541076660156
Mantid	-9.64126205444336
bs	-9.641411781311035
im	-9.64158821105957
swarm	-9.642077445983887
max	-9.64448070526123
String	-9.645035743713379
mk	-9.646145820617676
Index	-9.647603034973145
25	-9.647936820983887
sp	-9.64958667755127
▁the	-9.6497163772583
▁learn	-9.650557518005371
commonjs	-9.650725364685059
langs	-9.65278434753418
ldap	-9.653366088867188
CSS	-9.654037475585938
operator	-9.654853820800781
doge	-9.656468391418457
ast	-9.65661334991455
blue	-9.65715503692627
top	-9.658479690551758
Plo	-9.659884452819824
locales	-9.65990924835205
Symfony	-9.660796165466309
sound	-9.661053657531738
hq	-9.661308288574219
watchify	-9.661373138427734
merged	-9.661544799804688
bc	-9.66217041015625
54	-9.663703918457031
eb	-9.663705825805664
ta	-9.664589881896973
wordpress	-9.664688110351562
performance	-9.665499687194824
login	-9.6665678024292
strip	-9.666607856750488
jdt	-9.667745590209961
safe	-9.667909622192383
51	-9.66939926147461
harmony	-9.67116928100586
social	-9.671701431274414
cf	-9.671833038330078
codemirror	-9.672813415527344
book	-9.67495346069336
start	-9.675117492675781
translations	-9.675716400146484
Release	-9.676594734191895
Shared	-9.67959976196289
step	-9.680301666259766
history	-9.680426597595215
idig	-9.680583953857422
▁types	-9.681144714355469
value	-9.68164348602295
ir	-9.6823091506958
te	-9.682419776916504
▁includes	-9.683280944824219
Time	-9.683331489562988
30	-9.683719635009766
Modules	-9.684398651123047
guide	-9.68448257446289
Eleflex	-9.684913635253906
development	-9.686507225036621
ae	-9.68674373626709
signature	-9.687286376953125
Enums	-9.688276290893555
pci	-9.688329696655273
rx	-9.688549995422363
results	-9.688615798950195
javax	-9.691038131713867
space	-9.691636085510254
uploads	-9.692261695861816
port	-9.695133209228516
solr	-9.695904731750488
email	-9.696527481079102
graphics	-9.698599815368652
configuration	-9.699113845825195
Simple	-9.699810981750488
fi	-9.700551986694336
ea	-9.700674057006836
ra	-9.70197582244873
50	-9.702972412109375
hash	-9.703104019165039
gitignore	-9.703436851501465
copy	-9.704475402832031
shell	-9.70490550994873
graal	-9.705235481262207
um	-9.705581665039062
collections	-9.706465721130371
mock	-9.706805229187012
skin	-9.706936836242676
vi	-9.707618713378906
active	-9.707813262939453
20.	-9.707869529724121
Session	-9.707916259765625
play	-9.70844554901123
con	-9.71074104309082
ansi	-9.710836410522461
Build	-9.711202621459961
tar	-9.71296501159668
mpl	-9.713432312011719
Extension	-9.71374797821045
func	-9.714791297912598
sort	-9.71520709991455
projects	-9.715458869934082
btn	-9.715693473815918
Repository	-9.716070175170898
bf	-9.716900825500488
phpmyadmin	-9.717267036437988
DB	-9.717500686645508
.017118.0000/	-9.718330383300781
adapter	-9.718659400939941
har	-9.719143867492676
mongodb	-9.719321250915527
14.	-9.720490455627441
ide	-9.722018241882324
access	-9.723246574401855
stack	-9.726723670959473
xwiki	-9.727216720581055
joda	-9.727387428283691
users	-9.727519989013672
7.6.0-	-9.728014945983887
filters	-9.728044509887695
42	-9.728135108947754
channel	-9.729525566101074
ge	-9.729777336120605
venv	-9.730351448059082
13.	-9.731446266174316
geo	-9.734375953674316
▁2	-9.736445426940918
released	-9.737992286682129
plus	-9.739215850830078
haddock	-9.741395950317383
connection	-9.741745948791504
Sample	-9.744022369384766
▁1.0/	-9.745460510253906
concat	-9.746212005615234
widgets	-9.746672630310059
kotlin	-9.748147010803223
operators	-9.748746871948242
chokidar	-9.749844551086426
upload	-9.749881744384766
▁img	-9.750927925109863
compile	-9.753024101257324
▁Info	-9.754704475402832
lproj	-9.754997253417969
cssnano	-9.755074501037598
ur	-9.757052421569824
▁Stuff	-9.757291793823242
variables	-9.758391380310059
▁clean	-9.758703231811523
spi	-9.759462356567383
15.	-9.760242462158203
86_64-4.0	-9.76353645324707
Objects	-9.763938903808594
25.	-9.765467643737793
window	-9.76571273803711
ma	-9.766016006469727
firebase	-9.767501831054688
umd	-9.767765045166016
proj	-9.767904281616211
Stream	-9.770034790039062
referrer	-9.772199630737305
board	-9.772316932678223
down	-9.773189544677734
polyfill	-9.776249885559082
qll	-9.776795387268066
hu	-9.77725601196289
.9.	-9.778607368469238
ti	-9.781030654907227
normalize	-9.781166076660156
▁cli	-9.781635284423828
child	-9.782076835632324
Function	-9.784889221191406
semmle	-9.784996032714844
own	-9.786188125610352
Custom	-9.787314414978027
Templates	-9.788610458374023
cp	-9.791275978088379
diff	-9.791728973388672
86	-9.791889190673828
mixins	-9.791963577270508
dot	-9.792041778564453
bl	-9.792057991027832
waterwheelDemo	-9.793557167053223
literals	-9.794032096862793
pad	-9.79484748840332
nd	-9.795256614685059
export	-9.797280311584473
86/	-9.797394752502441
point	-9.799266815185547
Result	-9.7995023727417
Icon	-9.799528121948242
summary	-9.800065994262695
promise	-9.800662994384766
compat	-9.800751686096191
supers	-9.802173614501953
Sub	-9.803567886352539
powerpc	-9.805184364318848
▁python	-9.805595397949219
Cms	-9.806060791015625
mi	-9.806241035461426
layouts	-9.806574821472168
sprites	-9.80709171295166
links	-9.808499336242676
members	-9.809490203857422
non	-9.809656143188477
composer	-9.809671401977539
▁UW	-9.80998420715332
shrinkwrap	-9.810226440429688
usage	-9.810418128967285
rogressIndicator	-9.810787200927734
Java	-9.811028480529785
▁sql	-9.811771392822266
cas	-9.812254905700684
Menu	-9.812829971313477
Scene	-9.813117027282715
duplicate	-9.813491821289062
Button	-9.81583023071289
legacy	-9.815967559814453
protobuf	-9.815996170043945
geometry	-9.816267967224121
6.5.1-	-9.816272735595703
lt	-9.816778182983398
status	-9.8169527053833
▁Session	-9.81749439239502
player	-9.817570686340332
card	-9.820137023925781
addons	-9.822028160095215
ap	-9.822211265563965
abc	-9.822309494018555
chalk	-9.822334289550781
52	-9.824321746826172
observable	-9.825387954711914
front	-9.82590103149414
CHANGELOG	-9.826305389404297
hotspot	-9.827038764953613
clean	-9.827939987182617
286	-9.828518867492676
gtest	-9.82929515838623
Network	-9.830689430236816
Results	-9.831252098083496
Old	-9.832255363464355
through	-9.832399368286133
il	-9.832969665527344
Json	-9.83553409576416
Dialog	-9.837549209594727
Listener	-9.837818145751953
blocks	-9.838467597961426
Method	-9.838608741760254
arcusys	-9.841382026672363
aa	-9.842037200927734
panel	-9.842703819274902
Loader	-9.843086242675781
interface	-9.843513488769531
ali	-9.844252586364746
compute	-9.845306396484375
audio	-9.846179008483887
Internal	-9.846359252929688
trace	-9.846857070922852
01_	-9.847437858581543
cb	-9.850028991699219
dts	-9.85104751586914
hr	-9.851198196411133
mime	-9.851290702819824
CMakeLists	-9.851682662963867
per	-9.851825714111328
Container	-9.852225303649902
print	-9.853557586669922
queue	-9.854841232299805
vector	-9.855377197265625
uw	-9.855406761169434
constants	-9.856123924255371
migrations	-9.856884002685547
pp	-9.857172966003418
Create	-9.858098030090332
private	-9.858309745788574
▁libraries	-9.85859489440918
airline	-9.85865592956543
meow	-9.859273910522461
Update	-9.859940528869629
Open	-9.86023235321045
▁vendors	-9.861218452453613
reg	-9.861223220825195
change	-9.862225532531738
75	-9.863999366760254
repository	-9.865165710449219
production	-9.86540412902832
02/	-9.866250038146973
ka	-9.866856575012207
render	-9.867064476013184
▁cas	-9.868612289428711
chromium	-9.86938762664795
21.	-9.869407653808594
91	-9.871468544006348
pip	-9.871588706970215
sha	-9.872170448303223
unix	-9.872649192810059
black	-9.873306274414062
flat	-9.873409271240234
bot	-9.873617172241211
Types	-9.87387752532959
My	-9.874135971069336
size	-9.874359130859375
For	-9.874476432800293
▁chrome	-9.87468433380127
Connection	-9.874917984008789
resolve	-9.876304626464844
53	-9.877359390258789
Multi	-9.878700256347656
df	-9.878975868225098
serve	-9.879106521606445
si	-9.880037307739258
24.	-9.880457878112793
ll	-9.88230037689209
Target	-9.8824462890625
-2.0.5/	-9.882594108581543
aux	-9.884041786193848
▁user	-9.884905815124512
identity	-9.885658264160156
_3_	-9.88646411895752
▁mysql	-9.886787414550781
jtt	-9.887828826904297
che	-9.889106750488281
fast	-9.891759872436523
he	-9.89258098602295
68	-9.892660140991211
56	-9.894624710083008
glyphicons	-9.894644737243652
▁templates	-9.898921012878418
26	-9.89893627166748
tcl	-9.899703979492188
comp	-9.899956703186035
activity	-9.900655746459961
30.	-9.901382446289062
launcher	-9.901802062988281
60	-9.902116775512695
Drupal	-9.902138710021973
lu	-9.902413368225098
Output	-9.903121948242188
vue	-9.906180381774902
issue	-9.906208992004395
show	-9.906365394592285
prism	-9.907054901123047
location	-9.907565116882324
middleware	-9.908424377441406
Process	-9.909856796264648
All	-9.910002708435059
▁net	-9.912065505981445
And	-9.91246223449707
docker	-9.912912368774414
repo	-9.914130210876465
requirejs	-9.914453506469727
na	-9.915206909179688
ops	-9.91611099243164
plan	-9.916876792907715
ent	-9.91698169708252
48	-9.918253898620605
float	-9.919665336608887
Platform	-9.919707298278809
▁Pods	-9.919779777526855
feed	-9.920049667358398
45	-9.921353340148926
metrics	-9.921367645263672
__63__	-9.922786712646484
Collection	-9.922907829284668
643	-9.92387580871582
▁content	-9.925338745117188
webfont	-9.925554275512695
apis	-9.926491737365723
power	-9.928662300109863
▁Example	-9.928903579711914
71	-9.9303560256958
▁po	-9.930754661560059
Dockerfile	-9.931294441223145
renderer	-9.932156562805176
cases	-9.932783126831055
ico	-9.932954788208008
Path	-9.932961463928223
minimatch	-9.93372631072998
aar	-9.933900833129883
▁l	-9.935663223266602
ri	-9.936516761779785
Of	-9.939316749572754
Examples	-9.939454078674316
Views	-9.939665794372559
px	-9.939762115478516
Level	-9.940106391906738
Solution	-9.94128704071045
scoping	-9.941766738891602
ef	-9.941793441772461
Player	-9.942390441894531
Script	-9.94290828704834
jp	-9.942919731140137
we	-9.943093299865723
▁Server	-9.944494247436523
17.	-9.945637702941895
Window	-9.94599723815918
not	-9.946257591247559
sign	-9.946500778198242
ttf	-9.947543144226074
trim	-9.947881698608398
Domain	-9.948278427124023
shorthand	-9.948989868164062
Edit	-9.949193954467773
Renderer	-9.950088500976562
36.	-9.950361251831055
▁org	-9.950573921203613
elements	-9.950605392456055
mne	-9.951212882995605
char	-9.952798843383789
background	-9.953579902648926
▁datasets	-9.953709602355957
▁samples	-9.954751014709473
Tag	-9.954755783081055
Materials	-9.956268310546875
testdata	-9.956673622131348
raft	-9.957145690917969
typings	-9.957751274108887
training	-9.958723068237305
cast	-9.958871841430664
Format	-9.959050178527832
yui	-9.962312698364258
GCModeller	-9.962615013122559
oauth	-9.962687492370605
Reference	-9.962773323059082
professor	-9.963296890258789
979	-9.963933944702148
76	-9.964628219604492
Wrapper	-9.96471881866455
tt	-9.965204238891602
coverage	-9.967900276184082
19.	-9.96812629699707
temp	-9.9681978225708
partials	-9.968536376953125
mem	-9.968615531921387
rmp	-9.969304084777832
contact	-9.969642639160156
woff	-9.97016429901123
mc	-9.97166919708252
explorer	-9.972980499267578
ul	-9.973372459411621
portofino	-9.974578857421875
syntax	-9.974936485290527
Expression	-9.977347373962402
pb	-9.977662086486816
recipes	-9.977738380432129
02.	-9.977861404418945
descriptor	-9.978102684020996
design	-9.978252410888672
wpt	-9.978331565856934
ers	-9.98111343383789
Validator	-9.981244087219238
calendar	-9.981260299682617
META	-9.981344223022461
▁frontend	-9.981515884399414
Exercise	-9.981988906860352
preview	-9.982148170471191
Link	-9.982324600219727
factory	-9.98239803314209
manifest	-9.982399940490723
sk	-9.983123779296875
31.	-9.983271598815918
hawk	-9.983644485473633
element	-9.984658241271973
New	-9.985819816589355
XML	-9.986143112182617
79	-9.986788749694824
▁blog	-9.987119674682617
GAE	-9.987227439880371
No	-9.988579750061035
film	-9.98876667022705
Local	-9.991318702697754
batch	-9.991501808166504
xcodeproj	-9.991754531860352
Graph	-9.992355346679688
Ice	-9.992612838745117
74	-9.994610786437988
lab	-9.995014190673828
jmespath	-9.995722770690918
left	-9.997539520263672
Document	-9.997699737548828
Testing	-9.99891471862793
worker	-9.999520301818848
pa	-10.003430366516113
globule	-10.00370979309082
GUI	-10.00395679473877
pc	-10.00439453125
gms	-10.005468368530273
datepicker	-10.005584716796875
bit	-10.005719184875488
requests	-10.00572681427002
embed	-10.006278991699219
23.	-10.006447792053223
How	-10.006465911865234
job	-10.010416030883789
Header	-10.011931419372559
apollo	-10.013473510742188
Color	-10.013699531555176
phantomjs	-10.014883995056152
pi	-10.0150785446167
▁fs	-10.01523208618164
Pro	-10.015408515930176
cheerio	-10.015816688537598
▁Core	-10.01684284210205
@	-10.017090797424316
preprocessed	-10.017332077026367
hi	-10.017938613891602
sim	-10.018808364868164
▁admin	-10.019311904907227
latex	-10.01966381072998
Un	-10.020218849182129
Utilities	-10.02025318145752
scsi	-10.022174835205078
screen	-10.022222518920898
slider	-10.023682594299316
▁common	-10.024341583251953
Processor	-10.024378776550293
amazon	-10.024731636047363
jdbc	-10.024895668029785
Checkout	-10.02549934387207
UIApp	-10.025564193725586
lazy	-10.025940895080566
phone	-10.026379585266113
gz	-10.026731491088867
cfgs	-10.026751518249512
▁target	-10.028098106384277
easy	-10.030017852783203
Style	-10.030077934265137
22.	-10.030182838439941
monitor	-10.031407356262207
ajax	-10.032146453857422
▁services	-10.033514022827148
extra	-10.033929824829102
/#/	-10.034196853637695
method	-10.034235954284668
favicon	-10.034708976745605
De	-10.03590202331543
micro	-10.036419868469238
Console	-10.036502838134766
architecture	-10.037081718444824
imageset	-10.037474632263184
Attribute	-10.037843704223633
tap	-10.038732528686523
▁bower	-10.039588928222656
self	-10.039657592773438
ve	-10.040145874023438
textile	-10.040322303771973
▁media	-10.040741920471191
IO	-10.041841506958008
dateformat	-10.041841506958008
ft	-10.043071746826172
Oro	-10.043139457702637
vcxproj	-10.044303894042969
34.	-10.04454517364502
backup	-10.044739723205566
cfg	-10.045577049255371
lp	-10.045816421508789
Samples	-10.046216011047363
reader	-10.046306610107422
Report	-10.047110557556152
transport	-10.04714298248291
yargs	-10.047526359558105
8.1	-10.047857284545898
matrix	-10.048115730285645
CordovaLib	-10.048895835876465
def	-10.04945182800293
case	-10.049606323242188
nashorn	-10.050020217895508
ter	-10.050336837768555
Components	-10.052017211914062
rule	-10.052640914916992
fields	-10.053156852722168
Swift	-10.053448677062988
vinyl	-10.054229736328125
Unity	-10.054533958435059
au	-10.054597854614258
prototype	-10.055511474609375
Basic	-10.056965827941895
Parse	-10.057326316833496
workspace	-10.057768821716309
Version	-10.057971954345703
swagger	-10.058463096618652
NequeoCompany	-10.059993743896484
description	-10.060004234313965
canvas	-10.060437202453613
integer	-10.060442924499512
workload	-10.060739517211914
analytics	-10.06222915649414
Mvc	-10.062990188598633
items	-10.063782691955566
drm	-10.065080642700195
Decor	-10.06530475616455
valid	-10.065314292907715
▁ui	-10.065540313720703
dtk	-10.065746307373047
27.	-10.067021369934082
Widget	-10.06733226776123
Check	-10.068610191345215
Textures	-10.06875991821289
head	-10.069364547729492
tu	-10.069570541381836
regression	-10.069714546203613
neo	-10.070119857788086
region	-10.070205688476562
call	-10.07044506072998
redis	-10.07046890258789
normal	-10.070770263671875
tmpl	-10.07078742980957
fermat	-10.070860862731934
single	-10.070873260498047
roms	-10.071951866149902
Writer	-10.071969985961914
Product	-10.072311401367188
▁api	-10.073198318481445
38.	-10.07370662689209
pe	-10.073784828186035
TeX	-10.073999404907227
Backend	-10.0740966796875
cu	-10.074244499206543
_5_	-10.074601173400879
LayoutTests	-10.075047492980957
MathJax	-10.075948715209961
The	-10.076628684997559
javadoc	-10.077227592468262
chat	-10.077591896057129
channels	-10.077780723571777
memory	-10.077890396118164
segment	-10.078680038452148
gwt	-10.078681945800781
▁www	-10.079136848449707
vs	-10.079269409179688
assign	-10.079370498657227
rdf	-10.079798698425293
jpa	-10.079830169677734
_6_	-10.080989837646484
35.	-10.083126068115234
28.	-10.08344841003418
directory	-10.083471298217773
▁k	-10.083816528320312
highlight	-10.08383846282959
products	-10.08397102355957
indicator	-10.084623336791992
visual	-10.084943771362305
2017	-10.085283279418945
opt	-10.08554458618164
sw	-10.086787223815918
adec	-10.087141036987305
soc	-10.087355613708496
soft	-10.087703704833984
wallet	-10.087898254394531
▁Module	-10.088109016418457
Proxy	-10.0881986618042
jsp	-10.088236808776855
▁initializr	-10.088593482971191
baac	-10.088594436645508
hdpi	-10.088665962219238
em	-10.088767051696777
fusion	-10.088998794555664
2014	-10.089139938354492
/0.20.2/	-10.089771270751953
films	-10.0906982421875
Grid	-10.090944290161133
ecae	-10.091209411621094
tables	-10.09321117401123
esnext	-10.093345642089844
bus	-10.09338665008545
scm	-10.094436645507812
CSharp	-10.094558715820312
26.	-10.094900131225586
-1.4.4/	-10.095025062561035
▁repos	-10.095953941345215
sm	-10.096031188964844
Render	-10.09754467010498
chain	-10.097606658935547
todo	-10.097729682922363
testcases	-10.098447799682617
mce	-10.099105834960938
sv	-10.099721908569336
29.	-10.100035667419434
performances	-10.100133895874023
serialization	-10.100176811218262
03-	-10.10047721862793
Token	-10.100700378417969
31	-10.101222038269043
Entry	-10.102022171020508
ssl	-10.10240650177002
send	-10.102537155151367
▁stable	-10.102544784545898
asn	-10.104118347167969
bind	-10.104681968688965
▁K	-10.104776382446289
Versions	-10.105461120605469
Options	-10.1056489944458
stat	-10.1058988571167
▁sound	-10.105944633483887
Or	-10.106410026550293
35	-10.106536865234375
bitdubai	-10.106989860534668
▁browser	-10.10717487335205
Frame	-10.10734748840332
ify	-10.107479095458984
39.	-10.107585906982422
annotations	-10.107954978942871
advanced	-10.108020782470703
portal	-10.10834789276123
Word	-10.108464241027832
body	-10.10866641998291
VLC	-10.109509468078613
▁Library	-10.109902381896973
li	-10.110015869140625
perf	-10.11048412322998
document	-10.112298965454102
2.3.1/	-10.112704277038574
rep	-10.11275863647461
_1_	-10.113828659057617
accord	-10.114256858825684
BR	-10.11633014678955
str	-10.116692543029785
entry	-10.11840534210205
Driver	-10.11876392364502
archive	-10.119362831115723
58	-10.119645118713379
37.	-10.119694709777832
sonarqube	-10.120046615600586
utility	-10.12020492553711
44	-10.120244979858398
33.	-10.120854377746582
▁chunk	-10.121711730957031
argparse	-10.121996879577637
wwwroot	-10.12241268157959
47	-10.12255573272705
ls	-10.123018264770508
exploded	-10.123477935791016
sublime	-10.125003814697266
switch	-10.125946044921875
▁sonar	-10.126138687133789
Cloud	-10.126654624938965
about	-10.126866340637207
enhanced	-10.126998901367188
Home	-10.127004623413086
▁website	-10.128413200378418
Fragment	-10.128523826599121
gateway	-10.128559112548828
sparql	-10.128708839416504
birt	-10.12877368927002
zlib	-10.128862380981445
extras	-10.128965377807617
expr	-10.129867553710938
Regular	-10.129950523376465
Excel	-10.130725860595703
random	-10.131668090820312
Rule	-10.132434844970703
wheel	-10.1332368850708
308/	-10.134037017822266
100	-10.134698867797852
dns	-10.136079788208008
_12_	-10.136244773864746
55	-10.136326789855957
200	-10.136792182922363
scale	-10.137510299682617
huxing	-10.137848854064941
ChangeLog	-10.138556480407715
▁features	-10.139150619506836
▁war	-10.139527320861816
▁Tools	-10.139623641967773
pipeline	-10.140364646911621
Video	-10.141546249389648
other	-10.143086433410645
springframework	-10.143688201904297
upgrade	-10.144147872924805
generate	-10.144767761230469
didi	-10.145099639892578
Libs	-10.145971298217773
record	-10.146513938903809
tile	-10.146961212158203
dump	-10.147071838378906
binary	-10.149040222167969
first	-10.14904499053955
Access	-10.149152755737305
processor	-10.149249076843262
Src	-10.149679183959961
Kconfig	-10.150684356689453
Post	-10.150908470153809
presentation	-10.151013374328613
ns	-10.151266098022461
dp	-10.151400566101074
tsa	-10.151527404785156
handlebars	-10.151713371276855
std	-10.15262222290039
-5.2/	-10.152731895446777
glr	-10.153692245483398
Effects	-10.154383659362793
over	-10.154562950134277
mongo	-10.154653549194336
ipynb	-10.154682159423828
interfaces	-10.15558910369873
row	-10.15571403503418
Compiler	-10.155793190002441
▁atom	-10.156949996948242
universal	-10.15766429901123
unity	-10.158048629760742
reduce	-10.158320426940918
sc	-10.158622741699219
akdb	-10.158957481384277
graphql	-10.159008026123047
vim	-10.159317970275879
tech	-10.159917831420898
Chart	-10.161332130432129
Env	-10.161384582519531
tor	-10.161561012268066
methods	-10.162992477416992
animation	-10.163280487060547
foundation	-10.16357421875
what	-10.164427757263184
Account	-10.164454460144043
routes	-10.165504455566406
▁storage	-10.165635108947754
count	-10.166194915771484
notes	-10.167037963867188
mediawiki	-10.167760848999023
Math	-10.167895317077637
touch	-10.168306350708008
Definition	-10.168888092041016
same	-10.169449806213379
▁closure	-10.170639991760254
vc	-10.171099662780762
gc	-10.1712064743042
bug	-10.17223072052002
Line	-10.173973083496094
thread	-10.174012184143066
mkdirp	-10.17439079284668
▁Files	-10.174819946289062
▁extensions	-10.17495059967041
star	-10.175333976745605
xsd	-10.175620079040527
Events	-10.17580509185791
configs	-10.176765441894531
shim	-10.177033424377441
puppet	-10.177413940429688
dynamic	-10.177533149719238
rpc	-10.178723335266113
sldr	-10.179145812988281
logging	-10.180052757263184
PHPExcel	-10.180500984191895
Nequeo	-10.180889129638672
Package	-10.181856155395508
semantic	-10.182093620300293
poi	-10.183479309082031
gamma	-10.183788299560547
phx	-10.184306144714355
save	-10.184560775756836
toolbar	-10.18456745147705
cat	-10.18521785736084
convert	-10.186110496520996
Audio	-10.1876802444458
containers	-10.187793731689453
escape	-10.188724517822266
prop	-10.188748359680176
applications	-10.189157485961914
noise	-10.189347267150879
pool	-10.189385414123535
ga	-10.189929008483887
insert	-10.192300796508789
msg	-10.192451477050781
volume	-10.19267463684082
Carthage	-10.192723274230957
authentication	-10.192731857299805
▁C	-10.193554878234863
redirect	-10.193917274475098
luni	-10.194019317626953
ity	-10.194083213806152
Support	-10.195555686950684
Call	-10.195845603942871
fix	-10.197190284729004
route	-10.197319984436035
65	-10.197725296020508
bridge	-10.197925567626953
History	-10.198044776916504
Order	-10.199125289916992
ES	-10.199520111083984
attack	-10.19979190826416
Rest	-10.19980525970459
38	-10.200143814086914
ya	-10.200651168823242
sr	-10.202434539794922
inherits	-10.202478408813477
free	-10.203557968139648
prefab	-10.203878402709961
Language	-10.2040433883667
edge	-10.20417308807373
logic	-10.204819679260254
▁Agit	-10.20611572265625
gallery	-10.20640754699707
Queue	-10.207297325134277
63	-10.207534790039062
utilities	-10.207554817199707
omap	-10.207703590393066
JS	-10.209168434143066
Job	-10.21142864227295
Public	-10.211617469787598
_11_	-10.211777687072754
inline	-10.21177864074707
ExtremeMotionSDK	-10.21186351776123
▁quest	-10.212862014770508
align	-10.213274955749512
write	-10.213410377502441
_7_	-10.218567848205566
cy	-10.218768119812012
Layer	-10.21878719329834
Bar	-10.218793869018555
▁javascript	-10.219210624694824
dart	-10.220182418823242
question	-10.220285415649414
targets	-10.220335006713867
fill	-10.220840454101562
spread	-10.22114372253418
tf	-10.223336219787598
vmkdrivers	-10.225049018859863
runner	-10.225319862365723
bench	-10.225409507751465
spirit	-10.225906372070312
ifs	-10.225937843322754
Kit	-10.226188659667969
ethernet	-10.22645378112793
regular	-10.227253913879395
semver	-10.227276802062988
website	-10.22824478149414
80	-10.228602409362793
split	-10.228670120239258
Profile	-10.22883129119873
Doctrine	-10.229092597961426
hadoop	-10.229785919189453
controls	-10.230683326721191
messaging	-10.231409072875977
echarts	-10.232365608215332
Frameworks	-10.23275089263916
rd	-10.233189582824707
▁forum	-10.233716011047363
Metadata	-10.233861923217773
doctrine	-10.234122276306152
CN	-10.23468017578125
gray	-10.236776351928711
#	-10.236785888671875
▁hostapd	-10.236900329589844
_10_	-10.236974716186523
pokemon	-10.237367630004883
ld	-10.237446784973145
pokedex	-10.237824440002441
hg	-10.23837947845459
day	-10.239901542663574
Sql	-10.240997314453125
OG	-10.24116039276123
Controllers	-10.241698265075684
tk	-10.242142677307129
silk	-10.243016242980957
androidTest	-10.243154525756836
remove	-10.243617057800293
news	-10.24455738067627
wn	-10.24536418914795
ho	-10.245929718017578
halflings	-10.246159553527832
plist	-10.24625301361084
unittest	-10.246259689331055
bat	-10.248261451721191
selenium	-10.248947143554688
39	-10.24924087524414
operations	-10.249434471130371
▁Tests	-10.249753952026367
patches	-10.250692367553711
62	-10.25069522857666
tutorial	-10.254118919372559
▁documentation	-10.254958152770996
134/	-10.25499439239502
From	-10.255297660827637
▁R	-10.256173133850098
33	-10.256441116333008
level	-10.256516456604004
scope	-10.257918357849121
nn	-10.258246421813965
ResourceManager	-10.258310317993164
mdpi	-10.258366584777832
Windows	-10.258955955505371
ment	-10.260165214538574
Status	-10.260184288024902
▁tmp	-10.261903762817383
IT	-10.262072563171387
software	-10.263211250305176
qs	-10.26331901550293
dep	-10.263665199279785
_13_	-10.264065742492676
general	-10.265864372253418
bio	-10.266223907470703
By	-10.267489433288574
lv	-10.269079208374023
Operation	-10.27036190032959
maven	-10.270419120788574
Locale	-10.27146053314209
handlers	-10.273974418640137
bi	-10.27400016784668
beans	-10.274100303649902
defaults	-10.274685859680176
qml	-10.275744438171387
/0.30.4/	-10.275887489318848
join	-10.275993347167969
EFM	-10.27637004852295
manual	-10.276505470275879
empty	-10.276854515075684
▁aws	-10.278818130493164
Neos	-10.27995777130127
-8.8/	-10.280242919921875
Tool	-10.280780792236328
noticia	-10.28162956237793
85	-10.282275199890137
Display	-10.282535552978516
special	-10.282543182373047
ha	-10.282938003540039
ive	-10.283132553100586
iter	-10.283432006835938
green	-10.284542083740234
camera	-10.28504467010498
linter	-10.287008285522461
Details	-10.287278175354004
real	-10.287981033325195
led	-10.288626670837402
nt	-10.288796424865723
AgitPOV	-10.289384841918945
Azure	-10.290630340576172
profiles	-10.291084289550781
_9_	-10.291108131408691
pure	-10.29159927368164
▁env	-10.292107582092285
4.2	-10.292136192321777
Device	-10.292136192321777
localedata	-10.292171478271484
_20_	-10.292470932006836
viewer	-10.292634963989258
serial	-10.292669296264648
Auth	-10.293038368225098
Fixtures	-10.293519020080566
slice	-10.293537139892578
Select	-10.293883323669434
41	-10.296195983886719
av	-10.297451972961426
lint	-10.297527313232422
entries	-10.297691345214844
everyauth	-10.298248291015625
stub	-10.29903507232666
88	-10.299301147460938
fetch	-10.29959487915039
_15_	-10.299894332885742
Help	-10.300094604492188
download	-10.30058479309082
Sim	-10.300875663757324
exception	-10.30087661743164
robot	-10.30094051361084
Date	-10.301209449768066
ver	-10.301313400268555
ku	-10.301654815673828
Logging	-10.303092002868652
DOM	-10.303872108459473
datasheet	-10.304494857788086
Site	-10.304729461669922
pattern	-10.30580997467041
▁testrunner	-10.306110382080078
▁Lesson	-10.306343078613281
devices	-10.306777000427246
▁01/	-10.307243347167969
oc	-10.307291030883789
Temp	-10.30856990814209
https	-10.308694839477539
alt	-10.309770584106445
2012	-10.311046600341797
AS	-10.311142921447754
folder	-10.312135696411133
minimist	-10.312983512878418
Feature	-10.313138008117676
83	-10.313878059387207
validate	-10.314081192016602
81	-10.314590454101562
abstract	-10.315478324890137
globals	-10.316475868225098
Mapping	-10.317035675048828
haml	-10.317068099975586
Instance	-10.31795597076416
irq	-10.318309783935547
chrome	-10.319643020629883
Mock	-10.320411682128906
entities	-10.322077751159668
Hammer	-10.322465896606445
cbp	-10.323810577392578
ibm	-10.324769973754883
rm	-10.325817108154297
ty	-10.325849533081055
workers	-10.32651424407959
Digits	-10.326905250549316
36	-10.327498435974121
sa	-10.327555656433105
11-	-10.327910423278809
ry	-10.32955551147461
~	-10.330024719238281
Pre	-10.33128547668457
decoder	-10.331795692443848
flash	-10.332019805908203
team	-10.332465171813965
Delete	-10.332542419433594
websocket	-10.33326244354248
machine	-10.33346176147461
Stack	-10.333528518676758
OS	-10.334329605102539
-1.1	-10.334794044494629
que	-10.334844589233398
clone	-10.334959030151367
full	-10.335222244262695
GB	-10.335256576538086
/3.15.0/	-10.335596084594727
AssemblyInfo	-10.336207389831543
cookie	-10.337559700012207
Prefabs	-10.337904930114746
selector	-10.338003158569336
token	-10.338044166564941
colors	-10.338181495666504
▁analysis	-10.338896751403809
providers	-10.33938980102539
As	-10.34054183959961
za	-10.34145450592041
land	-10.341708183288574
can	-10.341813087463379
_25_	-10.342496871948242
mon	-10.34251880645752
gmock	-10.342583656311035
ReactiveCocoa	-10.342744827270508
navigation	-10.342745780944824
▁solr	-10.343143463134766
xhdpi	-10.343561172485352
last	-10.343706130981445
paper	-10.344450950622559
winston	-10.344755172729492
Features	-10.345537185668945
Login	-10.345612525939941
deploy	-10.34679126739502
iframe	-10.3487548828125
sparc	-10.34913158416748
games	-10.349163055419922
On	-10.3496732711792
▁example	-10.350517272949219
scoped	-10.351067543029785
part	-10.351706504821777
NamePending	-10.353050231933594
OpenHeart	-10.353135108947754
pg	-10.353463172912598
sleuthkit	-10.355628967285156
Formula	-10.355854034423828
definitions	-10.355890274047852
craft	-10.356462478637695
guzzle	-10.356666564941406
Portable	-10.357247352600098
libsass	-10.357343673706055
directives	-10.357547760009766
Import	-10.358440399169922
gr	-10.359864234924316
DS	-10.360160827636719
ator	-10.36082649230957
wrappers	-10.360980033874512
Cell	-10.361030578613281
Runtime	-10.361188888549805
JodaTime	-10.362387657165527
Google	-10.362871170043945
Files	-10.36312198638916
2016	-10.36316204071045
cpython	-10.363280296325684
-6.5.1/	-10.363444328308105
Flow	-10.363557815551758
typeof	-10.363828659057617
▁helpers	-10.364282608032227
49	-10.364306449890137
mgmt	-10.364497184753418
snap	-10.365175247192383
filemanager	-10.366148948669434
drop	-10.36622142791748
84	-10.366315841674805
glsl	-10.36673641204834
Designer	-10.36685562133789
_14_	-10.367019653320312
Program	-10.367134094238281
clock	-10.367183685302734
GL	-10.36791706085205
dao	-10.368365287780762
ance	-10.368712425231934
scheduler	-10.369865417480469
zsh	-10.369942665100098
shape	-10.369946479797363
attr	-10.370268821716309
▁Resources	-10.371572494506836
clj	-10.372777938842773
Environment	-10.372986793518066
_1_1	-10.372997283935547
▁javadoc	-10.373271942138672
▁Coding	-10.373343467712402
xaml	-10.373433113098145
▁views	-10.373486518859863
repeat	-10.374095916748047
▁0.17/_	-10.374255180358887
javafx	-10.375239372253418
prompt	-10.375581741333008
escope	-10.375676155090332
Schema	-10.375801086425781
SampleAssets	-10.376145362854004
Export	-10.376241683959961
ny	-10.377835273742676
ize	-10.379047393798828
Native	-10.379494667053223
signin	-10.380690574645996
plain	-10.38200855255127
mipmap	-10.382441520690918
Label	-10.383027076721191
emulator	-10.385124206542969
live	-10.386170387268066
title	-10.38667106628418
VASSAL	-10.38832950592041
34	-10.388690948486328
kubernetes	-10.388924598693848
105	-10.390103340148926
fuzz	-10.390206336975098
500	-10.39150619506836
Tab	-10.392091751098633
Converter	-10.392105102539062
▁platform	-10.392593383789062
Nature	-10.392630577087402
deep	-10.392735481262207
move	-10.393102645874023
twitter	-10.393163681030273
Feed	-10.393884658813477
Resolver	-10.394218444824219
routing	-10.396402359008789
bo	-10.396784782409668
launch	-10.396944046020508
art	-10.397798538208008
ut	-10.397971153259277
abilities	-10.397994995117188
xt	-10.398167610168457
nio	-10.398337364196777
Matrix	-10.398390769958496
96	-10.398824691772461
Load	-10.399236679077148
ez	-10.399288177490234
stage	-10.400334358215332
Thread	-10.40084457397461
course	-10.401402473449707
Buffer	-10.40196704864502
nc	-10.402386665344238
xxhdpi	-10.402589797973633
materials	-10.403143882751465
downloads	-10.403711318969727
selection	-10.404210090637207
push	-10.404787063598633
▁Marlin	-10.405084609985352
groups	-10.407215118408203
dl	-10.407258987426758
unsupported	-10.40729808807373
uncss	-10.407341003417969
sqlite	-10.408312797546387
Global	-10.408896446228027
89	-10.409128189086914
xlf	-10.410493850708008
HAL	-10.410654067993164
yellow	-10.411100387573242
Location	-10.412459373474121
dataset	-10.412506103515625
underscore	-10.412752151489258
du	-10.414289474487305
▁themes	-10.414305686950684
Xml	-10.414958000183105
Db	-10.415786743164062
Python	-10.416871070861816
Number	-10.417274475097656
headers	-10.41768741607666
perl	-10.417952537536621
ke	-10.418004989624023
om	-10.418188095092773
Twig	-10.418255805969238
Out	-10.418379783630371
PHP	-10.418716430664062
02-	-10.418913841247559
sky	-10.420082092285156
collect	-10.420892715454102
61	-10.421122550964355
Annotation	-10.421313285827637
sum	-10.421486854553223
Icons	-10.421674728393555
Range	-10.421899795532227
mn	-10.422226905822754
wav	-10.423018455505371
roo	-10.423065185546875
hal	-10.423140525817871
▁(	-10.423324584960938
▁software	-10.424165725708008
ics	-10.42444133758545
Android	-10.425128936767578
93	-10.426069259643555
word	-10.426464080810547
HoloToolkit	-10.4265718460083
Depend	-10.42716121673584
lin	-10.42724323272705
wikimediaui	-10.427547454833984
apple	-10.427716255187988
scan	-10.427943229675293
homeassistant	-10.428828239440918
100.	-10.428833961486816
eot	-10.429059028625488
builtin	-10.429084777832031
stubs	-10.429085731506348
▁py	-10.429191589355469
3.0	-10.430084228515625
ag	-10.430086135864258
2.0/	-10.430682182312012
_17_	-10.430782318115234
let	-10.431065559387207
115	-10.431782722473145
Bean	-10.431816101074219
community	-10.432730674743652
Light	-10.433025360107422
fixed	-10.433741569519043
Customer	-10.433874130249023
Parameter	-10.43398666381836
Php	-10.434038162231445
Co	-10.434269905090332
57	-10.43449592590332
xmlbuilder	-10.434784889221191
resolver	-10.435351371765137
proc	-10.435840606689453
curve	-10.436503410339355
pixie	-10.437216758728027
rss	-10.437397003173828
uuid	-10.437461853027344
oo	-10.437556266784668
iso	-10.437579154968262
gp	-10.43844223022461
plat	-10.438529014587402
240.	-10.440505981445312
pass	-10.440691947937012
NodeTypes	-10.441428184509277
Messages	-10.441996574401855
US	-10.442567825317383
92	-10.442770957946777
Start	-10.44467830657959
▁archive	-10.444774627685547
07-	-10.446374893188477
Record	-10.446398735046387
nix	-10.446466445922852
notification	-10.446722984313965
BU	-10.447112083435059
energy	-10.449087142944336
UnitTests	-10.449732780456543
footer	-10.449861526489258
yhelp	-10.4500150680542
spark	-10.450481414794922
libWebCore	-10.450922966003418
99	-10.45130729675293
Up	-10.451970100402832
swear	-10.452332496643066
units	-10.452539443969727
2015	-10.452858924865723
dk	-10.454380989074707
▁Vendor	-10.454716682434082
exec	-10.454876899719238
timer	-10.455113410949707
tc	-10.4551420211792
destructuring	-10.45532512664795
expansion	-10.456523895263672
keep	-10.456979751586914
dma	-10.457058906555176
Qt	-10.457393646240234
statistics	-10.459346771240234
Host	-10.459476470947266
AR	-10.459753036499023
codemod	-10.460542678833008
binding	-10.461012840270996
▁android	-10.462082862854004
uapi	-10.46231746673584
inspector	-10.46234130859375
snippet	-10.462427139282227
etc	-10.463397026062012
molgenis	-10.463432312011719
tunnel	-10.463776588439941
term	-10.464054107666016
phtml	-10.46464729309082
DE	-10.464995384216309
pdb	-10.465314865112305
Generic	-10.466453552246094
_4_	-10.466460227966309
ox	-10.468941688537598
keyboard	-10.469194412231445
azure	-10.469386100769043
03.	-10.46946907043457
Enum	-10.469730377197266
Maven	-10.470412254333496
emoticons	-10.470587730407715
119	-10.471036911010742
▁o	-10.472559928894043
rocksdb	-10.472740173339844
iron	-10.473217964172363
Logger	-10.47365665435791
workflow	-10.474200248718262
gaze	-10.474425315856934
implementation	-10.475129127502441
exe	-10.47519588470459
changelogs	-10.475858688354492
stdlib	-10.477097511291504
curves	-10.477566719055176
category	-10.477998733520508
tl	-10.478078842163086
regions	-10.478570938110352
Chick	-10.478656768798828
classic	-10.479083061218262
▁icons	-10.479842185974121
retail	-10.480400085449219
off	-10.480767250061035
way	-10.48165225982666
mapping	-10.481658935546875
chunk	-10.48228931427002
standard	-10.482771873474121
sequence	-10.48328971862793
age	-10.483301162719727
jsdom	-10.483448028564453
theming	-10.48390007019043
configure	-10.484657287597656
mbedtls	-10.485057830810547
94	-10.485310554504395
TestCase	-10.485468864440918
▁models	-10.486034393310547
profiler	-10.48653793334961
gzip	-10.486690521240234
VisualStudio	-10.486831665039062
Azs	-10.48684024810791
gu	-10.488632202148438
stock	-10.488762855529785
apply	-10.489947319030762
Validation	-10.4904146194458
names	-10.490738868713379
fontawesome	-10.491326332092285
hy	-10.491364479064941
▁project	-10.49176025390625
37	-10.491990089416504
Column	-10.492021560668945
fspotcloud	-10.492167472839355
dotenv	-10.49239444732666
Eigen	-10.492755889892578
adapters	-10.49276351928711
Browser	-10.493086814880371
byte	-10.493485450744629
prod	-10.49416446685791
remoting	-10.495150566101074
▁S	-10.495786666870117
each	-10.49611759185791
OAuth	-10.496312141418457
UdemyUniversal	-10.496349334716797
_23_	-10.496628761291504
parties	-10.497529983520508
dvb	-10.497658729553223
large	-10.498120307922363
outputs	-10.498323440551758
Step	-10.498432159423828
nb	-10.498634338378906
cal	-10.49864673614502
etcd	-10.498750686645508
lr	-10.4994535446167
nan	-10.499570846557617
simulator	-10.499933242797852
params	-10.500051498413086
JavaScriptCore	-10.500112533569336
radio	-10.500218391418457
ot	-10.50086498260498
vo	-10.501070022583008
Material	-10.501126289367676
notify	-10.501235008239746
Catalog	-10.502330780029297
addon	-10.503064155578613
uni	-10.503416061401367
blob	-10.504342079162598
Tails	-10.50452995300293
Here	-10.50478458404541
mtrl	-10.505353927612305
Tile	-10.505609512329102
generators	-10.506893157958984
draft	-10.50727653503418
Setup	-10.50732421875
codegen	-10.507739067077637
_19_	-10.50801944732666
prefs	-10.508221626281738
signal	-10.50825309753418
GPUImage	-10.50851821899414
04.	-10.50881290435791
variant	-10.508934020996094
dis	-10.50914478302002
.1620035988259/	-10.50956916809082
Email	-10.510401725769043
ros	-10.511672973632812
apimgt	-10.512040138244629
▁demo	-10.512402534484863
.1611925430698/	-10.51259994506836
mt	-10.513262748718262
intel	-10.513917922973633
acorn	-10.514647483825684
innodb	-10.515022277832031
Iterator	-10.516249656677246
qunit	-10.51660442352295
Vector	-10.516976356506348
egit	-10.517800331115723
▁inc	-10.518182754516602
▁ifs	-10.518830299377441
fake	-10.518999099731445
ipv	-10.519853591918945
Sync	-10.520278930664062
labs	-10.520291328430176
cil	-10.520736694335938
csstudio	-10.521236419677734
Remote	-10.521758079528809
registration	-10.522354125976562
sq	-10.522354125976562
vesuvius	-10.522357940673828
GA	-10.522788047790527
Sources	-10.522965431213379
strong	-10.524083137512207
contacts	-10.52451229095459
trans	-10.525012969970703
cell	-10.525386810302734
jo	-10.525410652160645
102	-10.525670051574707
SVG	-10.525835037231445
label	-10.526945114135742
postmessage	-10.526975631713867
skel	-10.527411460876465
office	-10.528355598449707
extend	-10.528828620910645
▁UnityProject	-10.528864860534668
dhis	-10.52892780303955
assert	-10.530198097229004
Op	-10.530593872070312
some	-10.530893325805664
stm	-10.531078338623047
buttons	-10.531319618225098
migration	-10.53136920928955
256	-10.531536102294922
Id	-10.53214168548584
Latn	-10.532217979431152
encryption	-10.532246589660645
publish	-10.533089637756348
Category	-10.533447265625
adaptor	-10.533742904663086
▁kernel	-10.533951759338379
50.	-10.534136772155762
Async	-10.5343656539917
_21_	-10.534993171691895
bt	-10.535158157348633
ubuntu	-10.535289764404297
77	-10.535353660583496
Ex	-10.5360689163208
PyQt	-10.536572456359863
95	-10.53661823272705
wizard	-10.537175178527832
gpio	-10.537446022033691
canvg	-10.539060592651367
freetype	-10.539314270019531
tx	-10.539502143859863
hub	-10.539774894714355
connector	-10.540337562561035
blink	-10.540599822998047
ignore	-10.541102409362793
tabs	-10.541440963745117
uml	-10.542243957519531
dummy	-10.543417930603027
address	-10.543996810913086
Authentication	-10.544039726257324
simplebar	-10.54438304901123
Libraries	-10.545007705688477
Generated	-10.545232772827148
ak	-10.545336723327637
ExtensionSDK	-10.545455932617188
assemble	-10.545860290527344
yii	-10.546157836914062
constructor	-10.546698570251465
Graphics	-10.546892166137695
studio	-10.547414779663086
swiftmailer	-10.547892570495605
Prototypes	-10.5479736328125
ary	-10.54841136932373
brace	-10.548423767089844
ber	-10.548576354980469
Chat	-10.548673629760742
St	-10.549543380737305
Channel	-10.55019474029541
iotivity	-10.550955772399902
▁A	-10.550958633422852
ram	-10.551976203918457
Font	-10.551977157592773
erl	-10.551984786987305
Point	-10.552180290222168
modern	-10.552239418029785
Binary	-10.552258491516113
▁m	-10.552679061889648
quick	-10.552742958068848
tracker	-10.552902221679688
genome	-10.552976608276367
isarray	-10.553725242614746
wrap	-10.553808212280273
▁containers	-10.553986549377441
hover	-10.55471420288086
flies	-10.556021690368652
Ad	-10.556193351745605
67	-10.55651569366455
America	-10.556650161743164
programs	-10.556828498840332
terminal	-10.557909965515137
_01.	-10.557939529418945
sig	-10.558854103088379
slim	-10.55893325805664
▁gdb	-10.559683799743652
sale	-10.560416221618652
Black	-10.560725212097168
expression	-10.56077766418457
modal	-10.56109619140625
jee	-10.561102867126465
num	-10.561373710632324
Not	-10.5615873336792
calc	-10.562043190002441
ctools	-10.562161445617676
karma	-10.562447547912598
dict	-10.562601089477539
tst	-10.563241958618164
center	-10.563547134399414
fx	-10.563824653625488
ShaderCache	-10.563908576965332
Int	-10.565316200256348
1.0/	-10.565350532531738
program	-10.565433502197266
Go	-10.56613540649414
ling	-10.56615924835205
ate	-10.56669807434082
broker	-10.5668363571167
Seek	-10.566847801208496
updates	-10.567305564880371
comments	-10.567333221435547
▁ww	-10.567413330078125
Formatter	-10.567728042602539
constant	-10.567987442016602
shader	-10.568187713623047
ice	-10.568244934082031
tri	-10.56852912902832
▁branches	-10.568750381469727
little	-10.56877326965332
ID	-10.569252014160156
000	-10.570599555969238
Implementation	-10.57072639465332
linear	-10.571581840515137
password	-10.571681022644043
▁testsuite	-10.572686195373535
scroll	-10.572741508483887
vt	-10.573406219482422
designer	-10.573976516723633
are	-10.57430648803711
wx	-10.57479190826416
tion	-10.575228691101074
UserInterface	-10.575844764709473
weather	-10.575862884521484
concept	-10.577682495117188
pbxproj	-10.57780647277832
photo	-10.577935218811035
Work	-10.577960968017578
Serializer	-10.577981948852539
side	-10.57901668548584
Integration	-10.579504013061523
▁Ship	-10.579834938049316
col	-10.580168724060059
jena	-10.580284118652344
Sailing	-10.580401420593262
Mapper	-10.580522537231445
Mesh	-10.581042289733887
ndb	-10.581599235534668
Sprites	-10.581635475158691
59	-10.581859588623047
smart	-10.581998825073242
_16_	-10.582430839538574
Change	-10.582745552062988
qu	-10.583731651306152
ist	-10.584029197692871
150	-10.584179878234863
jboss	-10.584728240966797
Theme	-10.584769248962402
Card	-10.584864616394043
/8.5.2/	-10.584962844848633
wiki	-10.585808753967285
2010	-10.585848808288574
pd	-10.586058616638184
ScriptDev	-10.586285591125488
equal	-10.586380958557129
apacheds	-10.587005615234375
gi	-10.58719539642334
der	-10.587400436401367
compose	-10.587431907653809
mesh	-10.587529182434082
depend	-10.588409423828125
peer	-10.589371681213379
sip	-10.589649200439453
rspec	-10.589937210083008
zone	-10.590018272399902
▁dep	-10.590128898620605
745	-10.590250015258789
Meta	-10.591320991516113
cert	-10.591448783874512
crypt	-10.591473579406738
geotools	-10.591503143310547
rel	-10.59152603149414
structure	-10.592388153076172
series	-10.592390060424805
low	-10.592421531677246
extract	-10.592451095581055
509	-10.592920303344727
2013	-10.594575881958008
fragment	-10.594757080078125
FrontEnd	-10.59479808807373
SM	-10.594822883605957
▁ext	-10.59571647644043
patterns	-10.595736503601074
stringify	-10.59582233428955
▁account	-10.5960054397583
require	-10.596303939819336
answer	-10.597427368164062
Analysis	-10.597593307495117
ML	-10.598335266113281
72	-10.599773406982422
operation	-10.599905014038086
fl	-10.60010051727295
NS	-10.60024356842041
▁debian	-10.600361824035645
Def	-10.600733757019043
Constants	-10.601520538330078
Screen	-10.601807594299316
mr	-10.60200309753418
john	-10.602066040039062
az	-10.602493286132812
when	-10.602950096130371
reset	-10.602987289428711
glm	-10.603148460388184
np	-10.603740692138672
▁spring	-10.604235649108887
TEST	-10.60474967956543
ender	-10.604894638061523
documentation	-10.604960441589355
nodebb	-10.605563163757324
invert	-10.605616569519043
fit	-10.606257438659668
Count	-10.607192039489746
▁Formula	-10.60844612121582
▁g	-10.608892440795898
del	-10.609016418457031
Performance	-10.609390258789062
MSHTML	-10.60945987701416
Hash	-10.609784126281738
cn	-10.609911918640137
Run	-10.610560417175293
keycloak	-10.610729217529297
distribution	-10.61075496673584
69	-10.611212730407715
mu	-10.611628532409668
pipe	-10.611878395080566
mustache	-10.61207389831543
ST	-10.612405776977539
dataflow	-10.613567352294922
CBP	-10.614791870117188
fckeditor	-10.615464210510254
idl	-10.615659713745117
▁j	-10.61567211151123
Route	-10.61685848236084
gem	-10.616859436035156
execution	-10.617684364318848
carla	-10.617818832397461
embedded	-10.618433952331543
External	-10.618800163269043
rancher	-10.618810653686523
Callback	-10.619598388671875
pydev	-10.619688987731934
Right	-10.619980812072754
Role	-10.620034217834473
docx	-10.620673179626465
_24_	-10.620741844177246
utf	-10.62213134765625
long	-10.622465133666992
pangyp	-10.622973442077637
Vi	-10.62313461303711
fat	-10.624123573303223
ok	-10.624794006347656
BUILD	-10.625576972961426
press	-10.626015663146973
defs	-10.627232551574707
weinre	-10.628267288208008
Strategy	-10.628293991088867
ct	-10.628314018249512
terraform	-10.628336906433105
Html	-10.628597259521484
debian	-10.628767013549805
square	-10.629002571105957
98	-10.629006385803223
parent	-10.629648208618164
gdb	-10.630237579345703
CC	-10.630485534667969
codec	-10.631048202514648
sidebar	-10.631893157958984
phpexcel	-10.632954597473145
Is	-10.633037567138672
ana	-10.633182525634766
seq	-10.633845329284668
flex	-10.633851051330566
Mod	-10.633881568908691
Gen	-10.634136199951172
).	-10.634371757507324
final	-10.634472846984863
82	-10.636116027832031
Find	-10.636190414428711
Pass	-10.638060569763184
otr	-10.638315200805664
Doc	-10.638480186462402
sandbox	-10.638590812683105
writer	-10.6393404006958
Mobile	-10.64030933380127
(	-10.641874313354492
mx	-10.641892433166504
Axis	-10.642125129699707
tp	-10.643555641174316
ada	-10.644073486328125
ian	-10.644177436828613
106	-10.644181251525879
transaction	-10.644240379333496
Mail	-10.644545555114746
UnitTest	-10.644975662231445
specialchar	-10.645563125610352
AMS	-10.645594596862793
Read	-10.645907402038574
Geometry	-10.646865844726562
/8.8.0/	-10.648337364196777
Comment	-10.648472785949707
87	-10.649530410766602
close	-10.650041580200195
steps	-10.650314331054688
vis	-10.650381088256836
Url	-10.650434494018555
Readme	-10.650452613830566
packet	-10.650870323181152
exercises	-10.651128768920898
ath	-10.651344299316406
CS	-10.651688575744629
directive	-10.651989936828613
Packages	-10.652836799621582
ni	-10.65317440032959
Office	-10.653228759765625
Mode	-10.653287887573242
yo	-10.653936386108398
son	-10.654746055603027
oxygen	-10.654778480529785
receiver	-10.654969215393066
Redux	-10.655250549316406
placeholder	-10.65593147277832
km	-10.656292915344238
factor	-10.656401634216309
rmi	-10.656454086303711
1.0.	-10.656624794006348
optimist	-10.656630516052246
Sharp	-10.656694412231445
psd	-10.656974792480469
▁sale	-10.657008171081543
111	-10.657203674316406
▁base	-10.658005714416504
Registry	-10.658061981201172
ser	-10.658493995666504
readdirp	-10.658812522888184
shop	-10.659331321716309
golden	-10.65978717803955
▁system	-10.660152435302734
▁man	-10.660233497619629
rw	-10.660319328308105
Usage	-10.660619735717773
▁Sources	-10.660676002502441
ino	-10.660845756530762
noconflict	-10.660867691040039
wl	-10.66092586517334
openstack	-10.661335945129395
priv	-10.663087844848633
good	-10.66324520111084
uri	-10.66452693939209
lir	-10.664896011352539
charset	-10.665693283081055
▁T	-10.666069984436035
mocha	-10.666544914245605
scenarios	-10.666637420654297
compress	-10.667055130004883
daemon	-10.667210578918457
xcscheme	-10.668564796447754
Serialization	-10.668624877929688
ep	-10.668636322021484
1000	-10.670205116271973
reports	-10.670653343200684
payment	-10.67093276977539
Effect	-10.671014785766602
ek	-10.67102336883545
FCKeditor	-10.671463012695312
Apps	-10.671798706054688
++/	-10.672040939331055
Me	-10.67207145690918
minified	-10.672371864318848
wifi	-10.672529220581055
people	-10.674312591552734
rf	-10.675665855407715
Bold	-10.676025390625
Detail	-10.676065444946289
Policy	-10.676375389099121
extraction	-10.676533699035645
loop	-10.677285194396973
001	-10.677363395690918
categories	-10.67815113067627
Con	-10.678389549255371
after	-10.679268836975098
Transport	-10.679405212402344
vesse	-10.679615020751953
ness	-10.679691314697266
sshpk	-10.68075942993164
ence	-10.681167602539062
DBs	-10.681529998779297
urls	-10.681900978088379
endpoint	-10.682820320129395
Mo	-10.683110237121582
face	-10.683354377746582
05.	-10.683480262756348
graceful	-10.683629035949707
bullet	-10.683642387390137
thumb	-10.683860778808594
Gui	-10.684186935424805
respect	-10.684357643127441
300	-10.68436050415039
bom	-10.685281753540039
ten	-10.685281753540039
detect	-10.685463905334473
Address	-10.685783386230469
discrete	-10.685799598693848
late	-10.686235427856445
97	-10.686328887939453
magma	-10.6865873336792
tra	-10.687067985534668
▁shuup	-10.687236785888672
02_	-10.687365531921387
expand	-10.687701225280762
wi	-10.688812255859375
zi	-10.689563751220703
RE	-10.689642906188965
sensor	-10.690389633178711
ig	-10.691155433654785
namespace	-10.691250801086426
elasticsearch	-10.691702842712402
Contrib	-10.691998481750488
shaders	-10.692230224609375
Memory	-10.69437026977539
-1.10.2.	-10.694486618041992
/1.6-	-10.695509910583496
devicetree	-10.69578742980957
rq	-10.695858001708984
End	-10.69594955444336
_1_61	-10.696030616760254
-35.	-10.69636058807373
Assembly	-10.696534156799316
serializer	-10.696707725524902
more	-10.697148323059082
Ogre	-10.697731018066406
air	-10.6982421875
industry	-10.698847770690918
apereo	-10.699021339416504
2011	-10.699840545654297
IN	-10.70050048828125
any	-10.702184677124023
environment	-10.702272415161133
customer	-10.70427417755127
▁recipes	-10.704397201538086
ACE	-10.705301284790039
annotation	-10.705402374267578
Ionicons	-10.705479621887207
hardware	-10.706219673156738
area	-10.707221984863281
ua	-10.707311630249023
room	-10.707640647888184
hl	-10.708340644836426
three	-10.708402633666992
two	-10.708573341369629
Back	-10.708789825439453
Notification	-10.708842277526855
thirdparty	-10.708844184875488
boards	-10.708938598632812
documenteditor	-10.709052085876465
Consumer	-10.709227561950684
sap	-10.709298133850098
Scenes	-10.709428787231445
uint	-10.709510803222656
Labs	-10.709925651550293
Translations	-10.710813522338867
wm	-10.710968017578125
atom	-10.711042404174805
hive	-10.71114444732666
emoji	-10.711383819580078
▁testdata	-10.71158504486084
streams	-10.711637496948242
jobs	-10.711953163146973
IP	-10.712189674377441
ster	-10.712322235107422
PS	-10.71285629272461
started	-10.71292781829834
eval	-10.713019371032715
Linear	-10.713150024414062
ssh	-10.713300704956055
rendering	-10.713668823242188
▁contrib	-10.714025497436523
Character	-10.714142799377441
frameworks	-10.714219093322754
datatables	-10.714468955993652
catalog	-10.714494705200195
high	-10.714906692504883
xcuserdata	-10.715094566345215
deployment	-10.715218544006348
gov	-10.715291023254395
Option	-10.715856552124023
TW	-10.715985298156738
fire	-10.716080665588379
mer	-10.716679573059082
forge	-10.716768264770508
preprocessor	-10.716902732849121
STM	-10.717451095581055
▁Content	-10.718358039855957
trunk	-10.718900680541992
Forms	-10.718939781188965
bu	-10.718968391418457
ipxe	-10.719568252563477
openvpn	-10.719610214233398
Protocol	-10.720192909240723
hello	-10.720352172851562
Tasks	-10.720549583435059
zu	-10.721323013305664
AFNetworking	-10.72180461883545
editors	-10.721809387207031
incl	-10.722081184387207
66	-10.722406387329102
iconv	-10.723344802856445
htmlparser	-10.723772048950195
ttl	-10.72477912902832
Team	-10.725484848022461
Power	-10.726263999938965
ens	-10.72665786743164
ki	-10.726902961730957
nu	-10.72708797454834
ite	-10.727286338806152
zo	-10.727340698242188
amp	-10.72754192352295
scenario	-10.727680206298828
hoist	-10.72818374633789
su	-10.728337287902832
8.1/	-10.728367805480957
teen	-10.729021072387695
neon	-10.729040145874023
intellij	-10.729307174682617
sln	-10.72972583770752
2.1/	-10.730278968811035
effect	-10.730962753295898
boss	-10.731523513793945
73	-10.732368469238281
Section	-10.732722282409668
acceptance	-10.733095169067383
World	-10.733841896057129
every	-10.733959197998047
Helpers	-10.734771728515625
zen	-10.73493480682373
dropdown	-10.73544692993164
Streams	-10.735954284667969
jvm	-10.736347198486328
bn	-10.73653507232666
nested	-10.737017631530762
once	-10.73755168914795
defconfig	-10.737558364868164
osgi	-10.738134384155273
/2016-	-10.738258361816406
Workspace	-10.738343238830566
Po	-10.738663673400879
Size	-10.738686561584473
coreos	-10.739608764648438
compliance	-10.739919662475586
algorithms	-10.740631103515625
Pool	-10.741488456726074
doxygen	-10.741951942443848
developer	-10.741995811462402
nano	-10.742578506469727
babylon	-10.742966651916504
Upload	-10.743101119995117
built	-10.743300437927246
Socket	-10.743494033813477
overrides	-10.743525505065918
shadow	-10.743857383728027
specs	-10.744183540344238
620/	-10.74437141418457
numeric	-10.7445068359375
draw	-10.744649887084961
Copy	-10.744709968566895
▁extjs	-10.746231079101562
Navigation	-10.746760368347168
roles	-10.746926307678223
simulation	-10.747594833374023
tm	-10.747797966003418
StackAdmin	-10.748432159423828
▁engine	-10.74858283996582
Geo	-10.749403953552246
MP	-10.749625205993652
kerberos	-10.749870300292969
rimraf	-10.750624656677246
IR	-10.750862121582031
guides	-10.750958442687988
ax	-10.751653671264648
▁Co	-10.753454208374023
enum	-10.754008293151855
Viewer	-10.75441837310791
exceptions	-10.754888534545898
LF	-10.756316184997559
macosx	-10.757104873657227
mix	-10.757469177246094
Rules	-10.757806777954102
dependency	-10.758374214172363
glass	-10.75840950012207
Ro	-10.758825302124023
WebRoot	-10.759071350097656
effects	-10.759808540344238
overview	-10.759878158569336
health	-10.759925842285156
finder	-10.760113716125488
par	-10.760432243347168
mark	-10.760577201843262
726	-10.761656761169434
shelljs	-10.761747360229492
▁csharp	-10.761821746826172
portfolio	-10.76249885559082
schemas	-10.762809753417969
Logic	-10.763757705688477
encoding	-10.764312744140625
Runner	-10.76432991027832
position	-10.764392852783203
Space	-10.764458656311035
processing	-10.764500617980957
dsl	-10.764522552490234
Blade	-10.764592170715332
sax	-10.764707565307617
gs	-10.764827728271484
tsconfig	-10.765395164489746
▁pack	-10.765403747558594
uc	-10.76560115814209
okhttp	-10.765806198120117
papers	-10.765913963317871
Software	-10.766175270080566
alienv	-10.766206741333008
checks	-10.766663551330566
Shaders	-10.766695022583008
SQL	-10.76682186126709
january	-10.766949653625488
disk	-10.767354965209961
manage	-10.76842975616455
GoogleMaps	-10.768539428710938
Permission	-10.768945693969727
Routing	-10.769299507141113
alpine	-10.769306182861328
spa	-10.769709587097168
▁Samples	-10.769783973693848
Bg	-10.77015209197998
overlay	-10.77015495300293
invalid	-10.77033805847168
descriptors	-10.77095890045166
sections	-10.771150588989258
Book	-10.77122688293457
mono	-10.771624565124512
=	-10.771660804748535
sec	-10.771689414978027
algorithm	-10.772507667541504
double	-10.773237228393555
▁jena	-10.773423194885254
Tracker	-10.77381420135498
phocagallery	-10.774812698364258
ue	-10.775383949279785
3.3.1/	-10.775611877441406
315	-10.77572250366211
clear	-10.775788307189941
bad	-10.77587604522705
args	-10.776247024536133
hbs	-10.776328086853027
price	-10.777814865112305
scr	-10.777846336364746
scheduling	-10.777973175048828
Ref	-10.778748512268066
dec	-10.779030799865723
camel	-10.77916145324707
Sequence	-10.780329704284668
▁framework	-10.78038501739502
formats	-10.78042221069336
pub	-10.780695915222168
textures	-10.781499862670898
Controls	-10.78156566619873
jpeg	-10.78158950805664
dia	-10.7817964553833
layers	-10.781806945800781
dependencies	-10.782865524291992
cm	-10.782999038696289
_0/	-10.78350830078125
Be	-10.783719062805176
ring	-10.784590721130371
dt	-10.784831047058105
▁Classes	-10.785353660583496
gogo	-10.786160469055176
Collector	-10.786230087280273
emu	-10.786717414855957
Statement	-10.786800384521484
gnu	-10.786840438842773
queries	-10.787524223327637
Actions	-10.787897109985352
URL	-10.79025650024414
car	-10.790631294250488
Password	-10.790764808654785
▁M	-10.791338920593262
redux	-10.791607856750488
blade	-10.791759490966797
woocommerce	-10.79232120513916
▁v	-10.792612075805664
Symbol	-10.792710304260254
MySQL	-10.793188095092773
implemented	-10.79354190826416
pan	-10.794201850891113
▁docker	-10.795228004455566
▁a	-10.795392036437988
globalpom	-10.79607105255127
publisher	-10.796810150146484
story	-10.796913146972656
Camera	-10.797149658203125
Pages	-10.797761917114258
Dependency	-10.797799110412598
Row	-10.797876358032227
experimental	-10.798040390014648
▁Force	-10.798114776611328
profiling	-10.798768043518066
ServiceImpl	-10.799071311950684
Transform	-10.799805641174316
NET	-10.799921035766602
JSON	-10.80008602142334
hooks	-10.800117492675781
ju	-10.800556182861328
attribute	-10.801508903503418
ica	-10.802286148071289
postgres	-10.80262279510498
disabled	-10.802778244018555
ctrl	-10.803292274475098
tv	-10.804245948791504
mb	-10.80441951751709
bash	-10.804986953735352
Single	-10.805203437805176
ang	-10.805421829223633
creator	-10.806009292602539
outline	-10.806168556213379
▁and	-10.807331085205078
inl	-10.808389663696289
arg	-10.80848217010498
grappelli	-10.809318542480469
▁workflow	-10.810104370117188
60.	-10.810976028442383
column	-10.811944007873535
wait	-10.812057495117188
article	-10.812881469726562
86.	-10.813220977783203
▁coding	-10.81333065032959
mindtouch	-10.813399314880371
Contact	-10.813430786132812
pressed	-10.813980102539062
efm	-10.814558029174805
Shader	-10.815136909484863
tcp	-10.815698623657227
flag	-10.81594181060791
geom	-10.81607437133789
webhelp	-10.816915512084961
Monitor	-10.817089080810547
implement	-10.817143440246582
sheet	-10.817294120788574
lm	-10.817854881286621
▁pkgs	-10.81802749633789
_48	-10.819683074951172
-4.1.7/	-10.820033073425293
round	-10.820446014404297
jfree	-10.820893287658691
)/	-10.821059226989746
lists	-10.821294784545898
chi	-10.821640014648438
BillFold	-10.82164478302002
ship	-10.821741104125977
traits	-10.821883201599121
multiple	-10.822073936462402
broad	-10.82227611541748
backends	-10.822507858276367
converter	-10.823651313781738
reverse	-10.824136734008789
jfreechart	-10.824188232421875
sksl	-10.824302673339844
track	-10.824441909790039
ids	-10.824692726135254
600	-10.824933052062988
transformers	-10.825450897216797
izer	-10.826681137084961
Print	-10.82668685913086
water	-10.826759338378906
▁oci	-10.827601432800293
bundles	-10.827632904052734
Dynamic	-10.82798957824707
section	-10.828179359436035
ptr	-10.8284273147583
primitive	-10.828810691833496
Texture	-10.829506874084473
htmlpurifier	-10.82995319366455
React	-10.83088493347168
prefix	-10.83137321472168
▁install	-10.831385612487793
statespace	-10.831842422485352
original	-10.832265853881836
▁bingo	-10.832357406616211
Tutorial	-10.832451820373535
gauge	-10.832547187805176
supports	-10.833329200744629
▁sys	-10.83379077911377
yicons	-10.833998680114746
like	-10.835519790649414
holo	-10.835997581481934
Variable	-10.83607292175293
norm	-10.83644962310791
Website	-10.836470603942871
loading	-10.836869239807129
jasmine	-10.837482452392578
SS	-10.83768081665039
Directory	-10.837711334228516
▁i	-10.837907791137695
notation	-10.83834171295166
zero	-10.838343620300293
complex	-10.838911056518555
pictograms	-10.839024543762207
thing	-10.839666366577148
Agent	-10.83987808227539
strict	-10.840428352355957
illa	-10.841008186340332
nib	-10.841036796569824
qa	-10.841042518615723
future	-10.841693878173828
Ho	-10.842330932617188
/$.	-10.842498779296875
sam	-10.842582702636719
sel	-10.842630386352539
localization	-10.84272289276123
▁shared	-10.842909812927246
member	-10.843091011047363
386	-10.843263626098633
exports	-10.84333324432373
Mac	-10.843369483947754
mgt	-10.84372615814209
48.	-10.843912124633789
twist	-10.844014167785645
leafCommerceDemo	-10.844244003295898
topics	-10.844952583312988
ck	-10.845637321472168
002.	-10.845783233642578
iterating	-10.84591007232666
ABM	-10.846097946166992
tw	-10.8464994430542
fu	-10.84730339050293
,	-10.847389221191406
sSeq	-10.848130226135254
Bridge	-10.848468780517578
JavaAgent	-10.848485946655273
tensorics	-10.848501205444336
tianma	-10.849303245544434
Body	-10.849312782287598
Position	-10.849318504333496
-1.0.19/	-10.85017204284668
Calendar	-10.851015090942383
gnome	-10.851103782653809
wpa	-10.851160049438477
resize	-10.851324081420898
concurrently	-10.851906776428223
▁cmd	-10.852375030517578
AsteroidsProject	-10.852720260620117
nginx	-10.852726936340332
ViewModel	-10.853148460388184
Maps	-10.853294372558594
istanbul	-10.85356616973877
nodemailer	-10.854449272155762
_22_	-10.854573249816895
vars	-10.854836463928223
Save	-10.85555648803711
VEL	-10.856101036071777
fabric	-10.856130599975586
learning	-10.856162071228027
ao	-10.856295585632324
med	-10.856830596923828
netfilter	-10.857317924499512
openssl	-10.857404708862305
Parameters	-10.857609748840332
Sales	-10.858258247375488
extractor	-10.85844898223877
▁WordPress	-10.858588218688965
TJPYingKe	-10.8587007522583
kr	-10.85900592803955
ick	-10.85964298248291
discovery	-10.859736442565918
Selector	-10.860078811645508
ix	-10.860528945922852
Compat	-10.860540390014648
ash	-10.860736846923828
mtl	-10.860804557800293
ctl	-10.860876083374023
Matcher	-10.860937118530273
tgz	-10.862288475036621
ltr	-10.862378120422363
meteor	-10.863166809082031
Tune	-10.863295555114746
▁sdk	-10.86342716217041
blueprints	-10.864027976989746
vec	-10.864043235778809
101	-10.864273071289062
ping	-10.86518383026123
adv	-10.865253448486328
BC	-10.865255355834961
phy	-10.8653564453125
Infinity	-10.865593910217285
tls	-10.866236686706543
kaazing	-10.866456985473633
option	-10.866710662841797
Delegate	-10.866957664489746
apk	-10.86730670928955
Visitor	-10.867341995239258
xen	-10.867971420288086
byuSuite	-10.868186950683594
mar	-10.868188858032227
smiley	-10.86833667755127
AL	-10.868937492370605
capture	-10.869933128356934
AsyncDisplayKit	-10.8707914352417
ImageEffects	-10.871025085449219
ik	-10.871440887451172
mapper	-10.871634483337402
emissary	-10.871648788452148
cap	-10.871781349182129
Download	-10.87191390991211
120	-10.872072219848633
Random	-10.872530937194824
rpl	-10.872862815856934
Non	-10.873849868774414
GM	-10.874862670898438
symbian	-10.875140190124512
lookup	-10.875197410583496
mali	-10.875566482543945
lb	-10.876236915588379
IceLan	-10.876365661621094
mvc	-10.876391410827637
popup	-10.876840591430664
accounts	-10.877564430236816
DO	-10.877772331237793
sprite	-10.878067970275879
1.3.3-	-10.878643035888672
47.	-10.878937721252441
sensors	-10.879142761230469
enums	-10.87944221496582
Items	-10.87999153137207
bam	-10.880011558532715
CA	-10.880199432373047
compare	-10.880494117736816
wa	-10.88084888458252
Animation	-10.8809175491333
levels	-10.881733894348145
Identity	-10.882121086120605
sparse	-10.882448196411133
436	-10.882558822631836
talk	-10.882624626159668
corpus	-10.883062362670898
poll	-10.883123397827148
cart	-10.88330078125
border	-10.883609771728516
xtend	-10.883785247802734
dtsi	-10.88399887084961
113	-10.884222030639648
pot	-10.884720802307129
changelog	-10.885308265686035
dy	-10.88553524017334
planner	-10.885709762573242
Gr	-10.886269569396973
Environments	-10.88637924194336
Remove	-10.886402130126953
eo	-10.88677978515625
got	-10.886848449707031
ME	-10.887646675109863
▁sli	-10.888675689697266
executing	-10.889199256896973
Scheduler	-10.889248847961426
390/	-10.889932632446289
Selection	-10.889951705932617
tic	-10.889963150024414
002	-10.889974594116211
gg	-10.890219688415527
▁p	-10.890518188476562
force	-10.890583992004395
pu	-10.890592575073242
param	-10.89091968536377
uercus	-10.89101505279541
Plot	-10.891454696655273
▁Lib	-10.891473770141602
truffle	-10.891844749450684
null	-10.892412185668945
installer	-10.893041610717773
3.6/	-10.89322280883789
branch	-10.893289566040039
41.	-10.893440246582031
arc	-10.894050598144531
_70	-10.894185066223145
magic	-10.894189834594727
lcd	-10.894190788269043
evaluation	-10.894519805908203
gcc	-10.894655227661133
64-	-10.89486026763916
dr	-10.894881248474121
/16/1	-10.894883155822754
ug	-10.89488410949707
114	-10.896017074584961
compact	-10.896398544311523
ThirdParty	-10.897586822509766
indent	-10.898077964782715
notifications	-10.898262023925781
mf	-10.898859024047852
waterwheel	-10.89891529083252
attributes	-10.899422645568848
▁model	-10.899535179138184
HTMLPurifier	-10.899872779846191
Constraint	-10.900458335876465
bson	-10.900769233703613
07.	-10.900803565979004
▁Unity	-10.901052474975586
anim	-10.90153980255127
flask	-10.901671409606934
progressive	-10.90180778503418
tensor	-10.902379035949707
imx	-10.903034210205078
translation	-10.903290748596191
props	-10.903725624084473
fstream	-10.903822898864746
without	-10.903904914855957
▁ThirdParty	-10.90395450592041
Utility	-10.905647277832031
brand	-10.905824661254883
▁output	-10.90635871887207
Releases	-10.90678882598877
heap	-10.906854629516602
topology	-10.907071113586426
va	-10.9071683883667
Slider	-10.907796859741211
music	-10.90812873840332
Plan	-10.908186912536621
TK	-10.908202171325684
skeleton	-10.908710479736328
pretty	-10.908714294433594
En	-10.908817291259766
ebuild	-10.908822059631348
lru	-10.908976554870605
csharp	-10.909008026123047
click	-10.9093017578125
shoveler	-10.909748077392578
solid	-10.909843444824219
yang	-10.91052532196045
width	-10.910623550415039
slide	-10.911115646362305
SA	-10.911521911621094
Transaction	-10.91227912902832
tutorials	-10.912880897521973
metric	-10.913248062133789
Trading	-10.91336727142334
bluebird	-10.91340160369873
abDB	-10.914570808410645
pop	-10.91486930847168
2016/	-10.914962768554688
foo	-10.915401458740234
VM	-10.915738105773926
val	-10.916118621826172
shift	-10.916743278503418
fixture	-10.916940689086914
adoc	-10.917793273925781
handle	-10.917963981628418
libawt	-10.91855239868164
225	-10.919740676879883
requirements	-10.9197416305542
validators	-10.919770240783691
parsers	-10.920550346374512
-4.8.2.0/	-10.920645713806152
lifecycle	-10.92065143585205
ton	-10.92080307006836
place	-10.921010971069336
note	-10.921049118041992
ze	-10.921124458312988
AP	-10.92353343963623
pw	-10.923921585083008
Ui	-10.923993110656738
ray	-10.924283027648926
openwms	-10.924291610717773
panels	-10.924358367919922
NA	-10.92459774017334
sol	-10.924691200256348
zing	-10.924853324890137
Merge	-10.925551414489746
08_	-10.925799369812012
One	-10.926082611083984
NF	-10.926755905151367
hashicorp	-10.927056312561035
tty	-10.92713737487793
WindowsPhoneApp	-10.928011894226074
08.	-10.928147315979004
TC	-10.92818546295166
ome	-10.92837142944336
EC	-10.92866325378418
2007	-10.928827285766602
OpenWrt	-10.928897857666016
FileSystem	-10.930167198181152
city	-10.93083381652832
005	-10.930849075317383
Design	-10.931316375732422
-2015-03-25/	-10.931661605834961
compositing	-10.93167495727539
Installer	-10.931997299194336
alert	-10.932084083557129
ppc	-10.93255615234375
FR	-10.934794425964355
▁Framework	-10.935104370117188
▁applications	-10.935242652893066
Asset	-10.935479164123535
Mutation	-10.93628215789795
Aws	-10.936823844909668
servlet	-10.937215805053711
La	-10.937823295593262
INSTALLER	-10.93813705444336
Alert	-10.938156127929688
inverse	-10.938157081604004
mediawords	-10.938323974609375
spell	-10.939116477966309
RAC	-10.939168930053711
forward	-10.939180374145508
lan	-10.939817428588867
buf	-10.939882278442383
now	-10.939929962158203
Illuminate	-10.94000244140625
sta	-10.940601348876953
▁Examples	-10.940650939941406
Css	-10.940816879272461
400	-10.941304206848145
sci	-10.941595077514648
Track	-10.941717147827148
Sniff	-10.941859245300293
Users	-10.9419584274292
exit	-10.942167282104492
licenses	-10.942703247070312
_1_1_0_	-10.943031311035156
bold	-10.943487167358398
▁FRC	-10.943790435791016
glaf	-10.94413948059082
fpm	-10.944244384765625
webkit	-10.944435119628906
ner	-10.944945335388184
desc	-10.945085525512695
cover	-10.94518756866455
IS	-10.945621490478516
squareup	-10.945780754089355
err	-10.946218490600586
Do	-10.946401596069336
696	-10.94650936126709
MiaoLive	-10.946523666381836
activesupport	-10.947256088256836
fluid	-10.947495460510254
rev	-10.947646141052246
Py	-10.948762893676758
-0.1	-10.949559211730957
solutions	-10.949756622314453
gt	-10.950092315673828
SE	-10.950238227844238
▁sirius	-10.950664520263672
installation	-10.951089859008789
HTTP	-10.951093673706055
Rd	-10.951128959655762
cagwas	-10.951221466064453
ss	-10.951335906982422
doctree	-10.95164966583252
646	-10.951940536499023
compass	-10.952439308166504
ib	-10.95356559753418
pic	-10.953743934631348
Silicon	-10.954122543334961
bbossaop	-10.955002784729004
Root	-10.955134391784668
bean	-10.955472946166992
ux	-10.955702781677246
iv	-10.955811500549316
flatiron	-10.956027030944824
toml	-10.95607852935791
debugger	-10.956121444702148
Git	-10.95633602142334
/1.6.0/	-10.956896781921387
evolutionary	-10.956900596618652
counter	-10.95701789855957
mdl	-10.957135200500488
tif	-10.957647323608398
amcharts	-10.957921981811523
Area	-10.957990646362305
nic	-10.95853328704834
wc	-10.95853328704834
sonar	-10.959174156188965
▁de	-10.959383964538574
▁open	-10.960115432739258
conversion	-10.960247993469238
Water	-10.960663795471191
sharding	-10.960962295532227
sy	-10.961112976074219
cron	-10.961586952209473
thrive	-10.96164608001709
elf	-10.962102890014648
hh	-10.962688446044922
Bi	-10.962799072265625
▁geonode	-10.962809562683105
jce	-10.963032722473145
recordings	-10.964512825012207
rl	-10.965124130249023
-2019	-10.96628189086914
phoenix	-10.966409683227539
/9/9	-10.966416358947754
iphone	-10.966708183288574
sprockets	-10.967365264892578
/3.3.5	-10.96742057800293
Static	-10.968417167663574
initial	-10.968806266784668
states	-10.969244956970215
livereload	-10.969285011291504
partial	-10.969416618347168
crm	-10.969730377197266
gh	-10.970128059387207
Outlook	-10.970248222351074
cloudify	-10.970574378967285
Dao	-10.970709800720215
fun	-10.971083641052246
News	-10.971470832824707
break	-10.971578598022461
hex	-10.971948623657227
gis	-10.972140312194824
parts	-10.972186088562012
LSD	-10.972617149353027
sets	-10.97303295135498
tooltip	-10.97358226776123
-4.0.1/	-10.974095344543457
trap	-10.974405288696289
Dashboard	-10.974828720092773
quote	-10.97488784790039
cx	-10.975016593933105
57.	-10.975058555603027
▁lang	-10.975119590759277
128	-10.975499153137207
partition	-10.976008415222168
Term	-10.976299285888672
72.	-10.976795196533203
cobertura	-10.976969718933105
generation	-10.976991653442383
Stats	-10.977351188659668
400.	-10.977664947509766
parameter	-10.978078842163086
Top	-10.978681564331055
CL	-10.978755950927734
▁sw	-10.978911399841309
swap	-10.978931427001953
playground	-10.978939056396484
vmkapi	-10.979206085205078
formatter	-10.979292869567871
apiDocs	-10.979508399963379
Blog	-10.97959041595459
Sound	-10.97968864440918
▁site	-10.980192184448242
8.6/	-10.98056697845459
Case	-10.980789184570312
lisp	-10.980828285217285
General	-10.980841636657715
/15/15	-10.98122787475586
stories	-10.98139476776123
avr	-10.981563568115234
axis	-10.981660842895508
replacements	-10.981844902038574
Reflection	-10.982805252075195
rake	-10.982989311218262
▁profiles	-10.983292579650879
jl	-10.983317375183105
▁workspace	-10.983810424804688
sphinx	-10.984224319458008
Crypto	-10.984808921813965
restify	-10.986059188842773
inst	-10.986170768737793
cost	-10.986485481262207
▁sample	-10.986617088317871
Sparkle	-10.986701011657715
adaptors	-10.987180709838867
Match	-10.987503051757812
modernizr	-10.987653732299805
Descriptor	-10.988627433776855
shopping	-10.988739013671875
Picker	-10.988849639892578
deprecated	-10.989051818847656
minimal	-10.9893798828125
AI	-10.989823341369629
plaf	-10.98983383178711
ER	-10.990021705627441
/86/86	-10.990188598632812
mal	-10.990334510803223
business	-10.990583419799805
▁gui	-10.99100399017334
sch	-10.991164207458496
role	-10.991271018981934
ning	-10.991272926330566
pictos	-10.991568565368652
Click	-10.991572380065918
missing	-10.99167251586914
▁Plugins	-10.991874694824219
Empty	-10.992056846618652
strategy	-10.992544174194336
cockroachdb	-10.992547988891602
/87/87	-10.992697715759277
Part	-10.992788314819336
rpt	-10.993109703063965
UIConceptsSample	-10.993517875671387
/4/4	-10.993931770324707
og	-10.994001388549805
bm	-10.994077682495117
hid	-10.994291305541992
/85/85	-10.994576454162598
/2/2	-10.994598388671875
picker	-10.99519157409668
Updates	-10.995308876037598
div	-10.996261596679688
poly	-10.996611595153809
transfer	-10.996916770935059
Guide	-10.997044563293457
001.	-10.997194290161133
655	-10.997398376464844
hibernate	-10.997454643249512
Finder	-10.997493743896484
screenshot	-10.997818946838379
Null	-10.998047828674316
Switch	-10.99844741821289
PK	-10.998541831970215
/1/1	-10.998687744140625
lens	-11.000382423400879
SubdivisionCode	-11.00042724609375
▁enyo	-11.00042724609375
Title	-11.000432014465332
/88/88	-11.000487327575684
FB	-11.000842094421387
secure	-11.000991821289062
UnityProject	-11.001409530639648
versions	-11.001669883728027
gm	-11.001943588256836
/78/78	-11.002594947814941
Max	-11.00283432006836
overflow	-11.003029823303223
Lock	-11.00339126586914
CWE	-11.003424644470215
AST	-11.00385570526123
khan	-11.00385856628418
kuali	-11.004255294799805
/72/72	-11.004524230957031
▁old	-11.004609107971191
Shape	-11.004806518554688
deki	-11.00493335723877
Manifest	-11.005332946777344
Analytics	-11.005501747131348
toolkit	-11.00554084777832
ger	-11.005778312683105
2018	-11.005999565124512
2009	-11.00611686706543
42.	-11.006163597106934
51.	-11.006291389465332
&	-11.006365776062012
acpi	-11.006452560424805
ise	-11.0067777633667
003.	-11.006860733032227
baselines	-11.007329940795898
jython	-11.007376670837402
Current	-11.008116722106934
ium	-11.008279800415039
irrlicht	-11.0083646774292
Interactive	-11.00840950012207
species	-11.00848388671875
nopt	-11.00908374786377
den	-11.009392738342285
/25/25	-11.009577751159668
/5/5	-11.009648323059082
Trans	-11.010173797607422
TU	-11.010231971740723
misocp	-11.010359764099121
alloc	-11.010369300842285
mg	-11.010414123535156
quiz	-11.010586738586426
/117/117	-11.011360168457031
ability	-11.01137924194336
reflection	-11.011503219604492
svgo	-11.011914253234863
gemspec	-11.011924743652344
PAJ	-11.012474060058594
MS	-11.012619972229004
ier	-11.013005256652832
act	-11.01324462890625
combined	-11.013338088989258
direct	-11.013374328613281
Long	-11.013532638549805
Use	-11.013713836669922
sourceforge	-11.014371871948242
/3/3	-11.014509201049805
logs	-11.015103340148926
50/50	-11.015233993530273
rk	-11.015292167663574
/118/118	-11.015366554260254
prepare	-11.016265869140625
complete	-11.016740798950195
ization	-11.017131805419922
Adminhtml	-11.017292022705078
/31/31	-11.017509460449219
/73/73	-11.017718315124512
▁var	-11.018265724182129
executor	-11.018378257751465
circle	-11.01838493347168
monster	-11.01841926574707
artifacts	-11.018433570861816
getting	-11.018576622009277
Bio	-11.018720626831055
Dev	-11.019291877746582
Move	-11.019790649414062
visitor	-11.01981258392334
its	-11.01988410949707
checkstyle	-11.020020484924316
vcproj	-11.020438194274902
004	-11.020564079284668
$1.	-11.020776748657227
timeline	-11.021383285522461
institute	-11.021395683288574
LaserDefender	-11.021403312683105
▁ios	-11.022989273071289
ifier	-11.02430248260498
Bin	-11.024621963500977
512	-11.025368690490723
survey	-11.0254487991333
wave	-11.025704383850098
110	-11.025904655456543
Endpoint	-11.025918006896973
ven	-11.02640438079834
Batch	-11.02650260925293
pie	-11.026676177978516
commit	-11.026925086975098
optin	-11.027329444885254
ata	-11.02733325958252
cris	-11.02794075012207
bound	-11.028790473937988
466	-11.029535293579102
Toolkit	-11.02971076965332
ial	-11.029839515686035
blend	-11.030035972595215
867	-11.030257225036621
PL	-11.030587196350098
/26/26	-11.030655860900879
bytes	-11.030714988708496
_256	-11.031365394592285
416	-11.0316743850708
dataintegration	-11.032305717468262
DateTime	-11.033018112182617
urogane	-11.033596992492676
rec	-11.033790588378906
uv	-11.033821105957031
avro	-11.03409194946289
msvc	-11.034530639648438
/55/55	-11.034697532653809
javancss	-11.035123825073242
/57/57	-11.035696983337402
/47/47	-11.036334037780762
compilation	-11.036676406860352
AD	-11.037017822265625
▁sharding	-11.037333488464355
typescript	-11.037582397460938
darwin	-11.037690162658691
using	-11.038241386413574
heart	-11.038407325744629
Presenter	-11.03880500793457
Lo	-11.039022445678711
Dis	-11.039201736450195
viz	-11.039215087890625
chef	-11.03946304321289
ODSA	-11.03973388671875
Music	-11.039752006530762
sharing	-11.03994083404541
contents	-11.040740966796875
webdriver	-11.040803909301758
wall	-11.040909767150879
▁Exercises	-11.040919303894043
ura	-11.041090965270996
behavior	-11.04125690460205
cam	-11.0414400100708
linq	-11.041629791259766
importer	-11.041999816894531
acl	-11.042154312133789
jms	-11.0422945022583
activerecord	-11.042976379394531
/21/21	-11.042987823486328
jasig	-11.043008804321289
invoice	-11.043111801147461
fish	-11.043643951416016
PT	-11.04395580291748
900	-11.044047355651855
/24/24	-11.044052124023438
fw	-11.044299125671387
Js	-11.044361114501953
cg	-11.044955253601074
/49/49	-11.044971466064453
sinon	-11.045134544372559
via	-11.045467376708984
GameServer	-11.045534133911133
Has	-11.045615196228027
2.1.2/	-11.045713424682617
rtc	-11.045975685119629
45.	-11.046003341674805
/30/30	-11.046124458312988
Full	-11.046124458312988
Loop	-11.046846389770508
parallel	-11.046966552734375
/14/14	-11.047205924987793
References	-11.047309875488281
ddl	-11.047351837158203
Payment	-11.047372817993164
definition	-11.047473907470703
fo	-11.047810554504395
285	-11.047996520996094
Supplier	-11.048003196716309
/65/65	-11.048176765441895
Cluster	-11.049643516540527
Com	-11.049837112426758
SP	-11.050671577453613
Desktop	-11.051116943359375
-1-13-	-11.051137924194336
atomic	-11.051361083984375
Lookups	-11.05161190032959
fold	-11.051651954650879
startup	-11.051680564880371
pay	-11.051946640014648
MF	-11.052135467529297
Branch	-11.052144050598145
eBay	-11.052409172058105
▁Dist	-11.053364753723145
MatrixBase	-11.053549766540527
CM	-11.053570747375488
360	-11.054093360900879
ajv	-11.054308891296387
/42/42	-11.054494857788086
▁module	-11.054645538330078
Condition	-11.054768562316895
ill	-11.054834365844727
findup	-11.054850578308105
Pane	-11.05495834350586
Modal	-11.05506706237793
HEADERS	-11.05526351928711
▁BLD	-11.055272102355957
toolbox	-11.055413246154785
responsive	-11.05633544921875
RC	-11.057234764099121
CH	-11.057351112365723
xtext	-11.057500839233398
cube	-11.05761432647705
▁Engine	-11.05788516998291
2021	-11.058364868164062
Encoder	-11.058441162109375
pixel	-11.058489799499512
03_	-11.058722496032715
Folder	-11.058839797973633
forks	-11.058881759643555
irc	-11.058982849121094
loganalytics	-11.05910587310791
Double	-11.059473037719727
/48/48	-11.060647964477539
eps	-11.060805320739746
Var	-11.060948371887207
openid	-11.061060905456543
dmg	-11.061190605163574
req	-11.0612154006958
53.	-11.061236381530762
▁Open	-11.0613431930542
usr	-11.061359405517578
return	-11.061798095703125
structures	-11.061968803405762
demand	-11.062153816223145
serv	-11.062837600708008
picture	-11.063251495361328
jshintrc	-11.064125061035156
orm	-11.064188957214355
sis	-11.06437873840332
gfx	-11.064384460449219
bmp	-11.064491271972656
fly	-11.064539909362793
jgroups	-11.064618110656738
Hook	-11.0647554397583
Instructions	-11.065325736999512
▁rest	-11.065502166748047
/0.11.4/	-11.065788269042969
ARM	-11.066075325012207
/22/22	-11.066105842590332
Le	-11.066354751586914
:_	-11.06674575805664
RELEASE	-11.066839218139648
bottom	-11.066841125488281
▁raptor	-11.066845893859863
▁mess	-11.066898345947266
WebUI	-11.067187309265137
xtb	-11.067479133605957
const	-11.067683219909668
-01-	-11.067849159240723
review	-11.068039894104004
/69/69	-11.069018363952637
fm	-11.06907844543457
Versioning	-11.069084167480469
PSA	-11.06926441192627
delay	-11.069276809692383
/13/13	-11.069438934326172
tro	-11.070293426513672
nw	-11.070615768432617
70.	-11.070759773254395
/8/8	-11.070927619934082
ORM	-11.0711088180542
Foundation	-11.072077751159668
bank	-11.07210922241211
drv	-11.072172164916992
_3_0_	-11.072709083557129
splice	-11.07320785522461
manifests	-11.07325267791748
Generate	-11.074065208435059
lucida	-11.074300765991211
purple	-11.07533073425293
pos	-11.075468063354492
testDigits	-11.075531959533691
Operator	-11.075787544250488
435	-11.075891494750977
125	-11.075969696044922
seed	-11.07601547241211
refactoring	-11.076379776000977
articles	-11.077136993408203
Border	-11.077542304992676
DTS	-11.078023910522461
/12/12	-11.078323364257812
eq	-11.078336715698242
imp	-11.07834529876709
audit	-11.078567504882812
person	-11.078874588012695
Worker	-11.078893661499023
modulos	-11.079638481140137
▁gcc	-11.081338882446289
nlp	-11.081489562988281
Compute	-11.081585884094238
checkbox	-11.08181095123291
cshtml	-11.08193588256836
jni	-11.082051277160645
Functional	-11.082104682922363
hridge	-11.082395553588867
analytic	-11.082415580749512
intro	-11.082478523254395
hellb	-11.08276081085205
yarn	-11.082820892333984
▁P	-11.082953453063965
protocols	-11.082963943481445
▁javafx	-11.0831298828125
house	-11.08327579498291
ized	-11.08349609375
Elements	-11.08379077911377
gas	-11.083792686462402
joomla	-11.083890914916992
Show	-11.084134101867676
Characters	-11.084188461303711
/19/19	-11.08419132232666
trigger	-11.084606170654297
vcs	-11.084683418273926
bugs	-11.084897994995117
workflows	-11.085042953491211
Master	-11.085508346557617
▁E	-11.086466789245605
2013/	-11.086751937866211
Chain	-11.087125778198242
ble	-11.087136268615723
Person	-11.087456703186035
Ar	-11.088142395019531
yahoo	-11.088191986083984
matchers	-11.088884353637695
firestore	-11.089552879333496
within	-11.089605331420898
crc	-11.090214729309082
▁ubuntu	-11.090396881103516
mouse	-11.090524673461914
Asia	-11.091012954711914
▁roles	-11.091068267822266
bcm	-11.091276168823242
Include	-11.09144115447998
_9/	-11.091465950012207
Handle	-11.091665267944336
Al	-11.09196662902832
listener	-11.092302322387695
gadget	-11.092528343200684
jaxrs	-11.092577934265137
Notes	-11.092999458312988
/46/46	-11.093001365661621
coin	-11.093290328979492
monolog	-11.093830108642578
minifier	-11.0941743850708
you	-11.094193458557129
49.	-11.09437084197998
59.	-11.09437370300293
carousel	-11.094696044921875
san	-11.094841003417969
verify	-11.095113754272461
80.	-11.095437049865723
Cross	-11.095741271972656
ish	-11.095934867858887
▁Kinect	-11.096729278564453
singular	-11.096826553344727
CurrencyExchange	-11.0968656539917
oh	-11.09689712524414
VC	-11.097307205200195
inter	-11.097758293151855
300/	-11.09791374206543
Spring	-11.097976684570312
quidCrystal	-11.097976684570312
xcworkspace	-11.09822940826416
nat	-11.098404884338379
SCS	-11.098788261413574
ctype	-11.098801612854004
minus	-11.099018096923828
walk	-11.099320411682129
cis	-11.09963607788086
datasource	-11.099989891052246
bluetooth	-11.100142478942871
44.	-11.100761413574219
pointer	-11.100837707519531
62.	-11.10093879699707
ky	-11.101131439208984
bed	-11.101679801940918
UIProcess	-11.10169506072998
123	-11.102051734924316
extender	-11.102657318115234
xp	-11.102758407592773
43.	-11.103119850158691
ung	-11.103293418884277
▁scraping	-11.103428840637207
Invalid	-11.10344123840332
wire	-11.104068756103516
issues	-11.104170799255371
20_	-11.104421615600586
2011/.	-11.104670524597168
Obj	-11.10482120513916
Labels	-11.1052885055542
Trace	-11.105450630187988
Quick	-11.105583190917969
▁tags	-11.105589866638184
/2014/10/	-11.105628967285156
acc	-11.105645179748535
pf	-11.105751991271973
Xl	-11.105836868286133
notebooks	-11.105901718139648
Exceptions	-11.10612678527832
king	-11.106189727783203
IntegrationTests	-11.1064453125
obeonetwork	-11.106744766235352
RT	-11.10728931427002
mailer	-11.1073579788208
58.	-11.107406616210938
thumbs	-11.107502937316895
macro	-11.107616424560547
OpenLayers	-11.107830047607422
posix	-11.108122825622559
Persistence	-11.108808517456055
lg	-11.108860969543457
od	-11.109374046325684
cgb	-11.109707832336426
Newli	-11.109721183776855
workbench	-11.11019515991211
II	-11.110237121582031
consumer	-11.111120223999023
CORE	-11.11124324798584
spice	-11.111806869506836
sms	-11.112092018127441
▁etc	-11.112095832824707
jekyll	-11.11225414276123
Jekyll	-11.112255096435547
351/	-11.112974166870117
/4.01.0/	-11.114399909973145
fwd	-11.114545822143555
▁Kernel	-11.115218162536621
crystal	-11.11555290222168
/116/116	-11.115555763244629
Member	-11.115699768066406
At	-11.115738868713379
encoder	-11.116477966308594
Left	-11.11670970916748
Install	-11.116796493530273
iz	-11.117080688476562
-1.0	-11.117293357849121
▁css	-11.117643356323242
sf	-11.117919921875
▁Web	-11.118353843688965
nv	-11.118807792663574
liftoff	-11.118890762329102
WebApp	-11.118906021118164
cookbooks	-11.11971378326416
Chrome	-11.119831085205078
sb	-11.119998931884766
silicolife	-11.120004653930664
textmining	-11.12000846862793
je	-11.120988845825195
blackfin	-11.12115478515625
changes	-11.121587753295898
▁TI	-11.122133255004883
enterprise	-11.122228622436523
Background	-11.122245788574219
/23/23	-11.122618675231934
Operations	-11.122861862182617
innovate	-11.123321533203125
extensible	-11.123347282409668
GE	-11.123522758483887
styl	-11.123526573181152
▁appcompat	-11.123693466186523
snapshots	-11.123900413513184
Information	-11.124466896057129
droid	-11.124598503112793
fenix	-11.12460994720459
EditorFeatures	-11.124707221984863
mame	-11.12490463256836
DotNet	-11.125226020812988
zoom	-11.125349044799805
distributions	-11.125553131103516
jndi	-11.12556266784668
prismjs	-11.12584114074707
syn	-11.126498222351074
Aspose	-11.126709938049316
loc	-11.127029418945312
-4.1/	-11.127107620239258
rock	-11.12798023223877
CEGUI	-11.128084182739258
CONTRIBUTING	-11.128954887390137
monitoring	-11.129119873046875
Register	-11.129643440246582
▁jp	-11.129800796508789
fail	-11.129984855651855
75.	-11.130050659179688
ph	-11.130558967590332
networking	-11.130859375
alibaba	-11.131196975708008
Pack	-11.13132095336914
Progress	-11.131351470947266
Router	-11.131889343261719
Description	-11.132121086120605
octopus	-11.13230037689209
/59/59	-11.13238525390625
statement	-11.133490562438965
csft	-11.134184837341309
007	-11.13444709777832
landing	-11.135544776916504
▁Modules	-11.135970115661621
Wpf	-11.136260032653809
lic	-11.13630199432373
Constant	-11.136661529541016
gerrit	-11.136849403381348
Creator	-11.136852264404297
Workspaces	-11.137038230895996
kk	-11.137767791748047
better	-11.137983322143555
djinn	-11.13798713684082
BE	-11.138853073120117
variable	-11.138999938964844
assignment	-11.139101028442383
Development	-11.139123916625977
cad	-11.139581680297852
55.	-11.139616966247559
Pattern	-11.14010238647461
before	-11.140260696411133
xib	-11.140548706054688
vendors	-11.140664100646973
codecs	-11.140938758850098
2005	-11.14123249053955
hunter	-11.141462326049805
/68/68	-11.141517639160156
tokens	-11.141547203063965
gram	-11.141932487487793
Godeps	-11.142004013061523
ipp	-11.14216423034668
comm	-11.142393112182617
algebra	-11.142534255981445
mas	-11.143030166625977
/58/58	-11.14374828338623
iconset	-11.143878936767578
Applications	-11.144487380981445
phantom	-11.145381927490234
Bot	-11.145813941955566
cards	-11.146444320678711
OgreData	-11.146554946899414
Decoder	-11.147150039672852
/17/17	-11.147430419921875
DataSource	-11.148009300231934
vectors	-11.148025512695312
Sky	-11.148451805114746
Car	-11.14846420288086
compiled	-11.14853286743164
Region	-11.14856243133545
couteau	-11.149383544921875
RO	-11.14966106414795
Pipeline	-11.149725914001465
795	-11.14999771118164
focus	-11.150117874145508
vx	-11.150198936462402
Series	-11.150466918945312
ticket	-11.150520324707031
opennms	-11.150538444519043
enveloprint	-11.150541305541992
cursor	-11.150548934936523
artifact	-11.150965690612793
rom	-11.151769638061523
adi	-11.152576446533203
▁alien	-11.152609825134277
▁App	-11.153435707092285
Connect	-11.153459548950195
numbers	-11.153947830200195
transition	-11.153966903686523
avatar	-11.15442943572998
stone	-11.154995918273926
Kernel	-11.155427932739258
character	-11.15542984008789
isdn	-11.155604362487793
ban	-11.15576457977295
railties	-11.156301498413086
fiesta	-11.156303405761719
HISTORY	-11.156307220458984
▁LAB	-11.156314849853516
/81/81	-11.15639877319336
cer	-11.15714168548584
refresh	-11.157851219177246
108	-11.15812873840332
Gradle	-11.158611297607422
solar	-11.15865421295166
night	-11.15884017944336
vert	-11.15900707244873
pem	-11.15924072265625
mtd	-11.159353256225586
NGUI	-11.159357070922852
bourbon	-11.159774780273438
▁mod	-11.159797668457031
003	-11.160058975219727
limit	-11.160271644592285
Fields	-11.160279273986816
emoOutput	-11.16064739227295
pygments	-11.160935401916504
▁driver	-11.161835670471191
Direct	-11.162074089050293
Executor	-11.162097930908203
zap	-11.16214656829834
injection	-11.162195205688477
▁turbo	-11.162379264831543
Train	-11.162603378295898
SqlServer	-11.162836074829102
NL	-11.163899421691895
PlugIn	-11.164216041564941
lxmwb	-11.164407730102539
Sort	-11.164608001708984
appcompat	-11.164697647094727
ingest	-11.165043830871582
under	-11.16508960723877
endpoints	-11.165099143981934
our	-11.16526985168457
ass	-11.166041374206543
ow	-11.166544914245605
clients	-11.167115211486816
dash	-11.167594909667969
drive	-11.167871475219727
61.	-11.1681547164917
iml	-11.16816520690918
mask	-11.168172836303711
cuda	-11.16910171508789
abs	-11.169357299804688
"	-11.169608116149902
maker	-11.169707298278809
▁q	-11.169859886169434
Proto	-11.169998168945312
Visual	-11.170196533203125
solaris	-11.170755386352539
dv	-11.17090892791748
jax	-11.171335220336914
preferences	-11.171805381774902
hook	-11.172209739685059
Room	-11.172255516052246
pin	-11.172346115112305
analyzer	-11.172408103942871
Red	-11.172618865966797
PowerPoint	-11.172654151916504
Linq	-11.172686576843262
006	-11.172994613647461
mpi	-11.173027038574219
eg	-11.173314094543457
communication	-11.174280166625977
004.	-11.174788475036621
tz	-11.174795150756836
▁G	-11.174910545349121
▁pages	-11.174957275390625
Inspector	-11.174962043762207
Connector	-11.175339698791504
gb	-11.175933837890625
eve	-11.176255226135254
656	-11.176799774169922
beam	-11.177092552185059
Cordova	-11.177214622497559
Ma	-11.177390098571777
short	-11.177425384521484
jetbrains	-11.178497314453125
kaldi	-11.178525924682617
▁resource	-11.178694725036621
minify	-11.178924560546875
Realm	-11.179280281066895
PF	-11.17938232421875
Play	-11.179641723632812
FI	-11.179787635803223
apt	-11.18013858795166
pri	-11.180275917053223
666	-11.180659294128418
phases	-11.180988311767578
CD	-11.181092262268066
igdc	-11.181262969970703
Attributes	-11.181693077087402
PlayerFramework	-11.182384490966797
Checker	-11.182687759399414
faq	-11.182843208312988
pocketmine	-11.183241844177246
Suite	-11.183314323425293
anymatch	-11.183367729187012
phpt	-11.183642387390137
macros	-11.183756828308105
Servlet	-11.184391975402832
-0.9.7.4/	-11.184441566467285
asciidoc	-11.18468189239502
Plus	-11.184807777404785
aspx	-11.184892654418945
styleguide	-11.184917449951172
combine	-11.185152053833008
gemoc	-11.1856689453125
machinery	-11.185687065124512
interpreter	-11.185786247253418
DAO	-11.185826301574707
-2.6	-11.185847282409668
67.	-11.185930252075195
torMain	-11.186362266540527
maxmin	-11.18689250946045
echo	-11.186907768249512
lilv	-11.186909675598145
Observable	-11.187997817993164
permissions	-11.188117980957031
Port	-11.18818473815918
hot	-11.188970565795898
tester	-11.189127922058105
Entities	-11.189190864562988
kanji	-11.189204216003418
Packet	-11.189599990844727
anchor	-11.189725875854492
MD	-11.18975830078125
gae	-11.19021987915039
AG	-11.190264701843262
Completion	-11.190385818481445
pianWarsCampaign	-11.190423011779785
bleve	-11.190512657165527
arx	-11.190881729125977
pen	-11.191058158874512
conv	-11.191266059875488
pxa	-11.191545486450195
AT	-11.191696166992188
saml	-11.191781044006348
phpspec	-11.19182300567627
bor	-11.192094802856445
16-	-11.192696571350098
devel	-11.192978858947754
FS	-11.193147659301758
ran	-11.193204879760742
ji	-11.193476676940918
vault	-11.193990707397461
Ticket	-11.19400405883789
idle	-11.194086074829102
Guzzle	-11.195178985595703
ysto	-11.19528579711914
xfs	-11.195616722106934
MainActivity	-11.195740699768066
enable	-11.196117401123047
ball	-11.196375846862793
Constructor	-11.196538925170898
77.	-11.196940422058105
▁slide	-11.197138786315918
▁Windows	-11.197518348693848
imports	-11.197541236877441
syscall	-11.198040008544922
wt	-11.198052406311035
ks	-11.198463439941406
Di	-11.198755264282227
disable	-11.199214935302734
▁"	-11.199484825134277
speed	-11.200082778930664
Live	-11.200498580932617
printer	-11.200538635253906
paste	-11.200643539428711
WebContent	-11.200922012329102
bytecode	-11.201009750366211
Pi	-11.201321601867676
-04-	-11.20142650604248
Transformer	-11.201886177062988
systems	-11.201972961425781
keywords	-11.202169418334961
Shell	-11.202396392822266
Syntax	-11.202410697937012
Mag	-11.202424049377441
loose	-11.20244312286377
bits	-11.202802658081055
planet	-11.203051567077637
mbeddr	-11.203620910644531
:	-11.203726768493652
TestProjects	-11.203771591186523
filesystem	-11.204046249389648
asr	-11.204811096191406
8192	-11.204848289489746
living	-11.204936981201172
104	-11.205122947692871
▁template	-11.205559730529785
flink	-11.205768585205078
protected	-11.205822944641113
banner	-11.206258773803711
mil	-11.206409454345703
spdy	-11.20679759979248
eng	-11.207651138305664
actionpack	-11.207867622375488
coll	-11.208548545837402
scx	-11.208822250366211
ler	-11.209397315979004
▁Dokumentation	-11.209723472595215
microsoft	-11.20982551574707
procedure	-11.209908485412598
charts	-11.210343360900879
abi	-11.210655212402344
▁files	-11.210711479187012
Summary	-11.210926055908203
sabre	-11.210967063903809
May	-11.211198806762695
ResultsExplorer	-11.212173461914062
CE	-11.21245002746582
005.	-11.212970733642578
inference	-11.213373184204102
▁jspm	-11.213486671447754
▁extended	-11.21438217163086
leaflet	-11.214603424072266
sym	-11.215188980102539
700	-11.215574264526367
unique	-11.2159423828125
94.	-11.216517448425293
adm	-11.21707820892334
TR	-11.217175483703613
69.	-11.217203140258789
roll	-11.217353820800781
96.	-11.217866897583008
isa	-11.218170166015625
Scope	-11.218292236328125
youbot	-11.218317031860352
/77/77	-11.218409538269043
JavaScript	-11.218456268310547
cssstyle	-11.218494415283203
alf	-11.219402313232422
LiveBroadcast	-11.219491958618164
63.	-11.21986198425293
optimizer	-11.219913482666016
-0.3	-11.220137596130371
AppIcon	-11.22055435180664
iq	-11.22079086303711
0000	-11.221264839172363
vision	-11.221978187561035
apex	-11.222017288208008
mess	-11.222870826721191
metal	-11.22292709350586
neutral	-11.223186492919922
Legacy	-11.223196983337402
delayed	-11.223697662353516
RB	-11.224482536315918
hxx	-11.22453498840332
keras	-11.22457218170166
frag	-11.226530075073242
65.	-11.226654052734375
devtools	-11.22685718536377
sketch	-11.226916313171387
WinJS	-11.227093696594238
lit	-11.227673530578613
▁extra	-11.228021621704102
jkiss	-11.228158950805664
smoke	-11.228187561035156
Workflow	-11.228188514709473
▁of	-11.22854995727539
Drivers	-11.228687286376953
smarty	-11.22877311706543
76.	-11.229252815246582
Airplanes	-11.229382514953613
finite	-11.229387283325195
market	-11.230472564697266
rich	-11.230624198913574
information	-11.230637550354004
/62/62	-11.23073959350586
infrastructure	-11.230761528015137
recess	-11.230817794799805
/10/10	-11.230950355529785
vers	-11.231090545654297
credentials	-11.231865882873535
xxx	-11.23212718963623
listing	-11.232157707214355
▁utils	-11.233001708984375
infiniband	-11.233128547668457
talents	-11.233219146728516
Share	-11.23425006866455
Spirv	-11.234358787536621
decompress	-11.234416007995605
Binding	-11.23460865020752
73.	-11.235456466674805
wesnoth	-11.235628128051758
chip	-11.235908508300781
your	-11.236069679260254
coding	-11.236186027526855
subprojects	-11.236246109008789
OTL	-11.236937522888184
Collections	-11.236985206604004
aucho	-11.236997604370117
para	-11.237977027893066
mate	-11.238001823425293
exynos	-11.23813533782959
AndroidManifest	-11.238187789916992
/2.2.0-	-11.238188743591309
/2.1.1/	-11.238200187683105
contract	-11.23830509185791
Normal	-11.238306045532227
rust	-11.239108085632324
xi	-11.239262580871582
dbeaver	-11.23938274383545
/107/107	-11.239388465881348
XX	-11.23939037322998
pet	-11.239507675170898
VE	-11.240118980407715
▁integration	-11.240249633789062
▁u	-11.24034595489502
spin	-11.24039363861084
Convert	-11.24060344696045
90.	-11.240769386291504
cgi	-11.24097728729248
Backup	-11.241166114807129
ins	-11.24135971069336
RecyclerView	-11.241890907287598
netflix	-11.241896629333496
lucene	-11.241897583007812
prometheus	-11.241900444030762
mpdf	-11.242457389831543
54.	-11.2431058883667
Registration	-11.243156433105469
Compilers	-11.243182182312012
Write	-11.243268013000488
wb	-11.243274688720703
firmware	-11.243292808532715
▁typo	-11.243330001831055
gonum	-11.244132995605469
Infrastructure	-11.244425773620605
inp	-11.244499206542969
pod	-11.244810104370117
Archive	-11.244842529296875
sysext	-11.244876861572266
SOP	-11.245489120483398
tre	-11.245671272277832
rack	-11.245770454406738
MIT	-11.246176719665527
nfs	-11.246211051940918
nand	-11.246573448181152
MO	-11.24677848815918
Newtonsoft	-11.246936798095703
journal	-11.2469482421875
JSQMessages	-11.246950149536133
smtp	-11.247314453125
motion	-11.247771263122559
▁locales	-11.247838020324707
combos	-11.248218536376953
eeglab	-11.248237609863281
NO	-11.248414993286133
▁Dy	-11.249248504638672
▁products	-11.249368667602539
inventory	-11.249510765075684
autoload	-11.249680519104004
extended	-11.250579833984375
encodings	-11.250713348388672
accessibility	-11.25075912475586
/82/82	-11.250840187072754
surface	-11.251018524169922
take	-11.251445770263672
guard	-11.251803398132324
Scale	-11.252245903015137
DependencyInject	-11.252260208129883
sourcemaps	-11.252565383911133
Man	-11.252596855163574
CR	-11.253092765808105
Shadow	-11.253291130065918
Per	-11.253904342651367
▁setup	-11.253904342651367
paths	-11.253928184509277
dhcp	-11.254617691040039
Push	-11.254643440246582
reactcss	-11.2548246383667
▁Contrib	-11.255118370056152
Transfer	-11.255694389343262
Xaml	-11.255828857421875
52.	-11.255833625793457
/67/67	-11.255951881408691
warning	-11.256097793579102
Tri	-11.256284713745117
hdfs	-11.25728988647461
hp	-11.25795841217041
Keys	-11.257987022399902
REST	-11.258172035217285
loadbalancer	-11.258462905883789
eth	-11.258499145507812
attachment	-11.259307861328125
ev	-11.259382247924805
▁O	-11.259422302246094
Ski	-11.259454727172852
taxonomy	-11.259675979614258
sn	-11.260119438171387
mag	-11.26026725769043
tracking	-11.26038932800293
mixin	-11.260613441467285
ACS	-11.260690689086914
Tor	-11.261016845703125
-12-	-11.261116981506348
postgresql	-11.261255264282227
-1.2.	-11.262043952941895
cmp	-11.26214599609375
study	-11.262267112731934
Transition	-11.262274742126465
omega	-11.262290000915527
Ext	-11.262514114379883
Trait	-11.262785911560059
▁security	-11.26284122467041
recipe	-11.262989044189453
none	-11.263381004333496
Diagnostics	-11.263434410095215
kra	-11.263667106628418
webp	-11.26384162902832
TH	-11.263983726501465
azu	-11.26418399810791
Th	-11.264699935913086
▁upload	-11.265777587890625
pick	-11.266008377075195
▁eclipse	-11.26657772064209
▁package	-11.266773223876953
ClientExample	-11.26746654510498
CoreBundle	-11.267748832702637
CDV	-11.267985343933105
▁ics	-11.268309593200684
Phone	-11.26849365234375
98.	-11.268832206726074
Names	-11.268892288208008
Phase	-11.268917083740234
builders	-11.269229888916016
Analyzer	-11.269465446472168
iCheck	-11.269804000854492
706	-11.269862174987793
AppBundle	-11.269967079162598
71.	-11.270755767822266
Execution	-11.271272659301758
7/23.0.1/	-11.271291732788086
ExceptionTest	-11.271404266357422
ey	-11.27155876159668
formula	-11.271632194519043
Exp	-11.271717071533203
tlog	-11.271729469299316
0001	-11.271927833557129
documentor	-11.272735595703125
activities	-11.272736549377441
107	-11.273001670837402
Declaration	-11.273872375488281
Sop	-11.274298667907715
▁robo	-11.274413108825684
ultimate	-11.275169372558594
hoek	-11.275230407714844
Pa	-11.27524185180664
▁Demo	-11.275630950927734
bee	-11.27566909790039
interaction	-11.275867462158203
immediate	-11.27647590637207
lnc	-11.277259826660156
shortcodes	-11.277342796325684
▁otl	-11.27758502960205
Sign	-11.2777738571167
acquia	-11.277779579162598
starter	-11.277960777282715
gd	-11.278216361999512
sink	-11.278350830078125
Reg	-11.279017448425293
Diff	-11.279105186462402
_1.3.0/	-11.279132843017578
mods	-11.279212951660156
▁service	-11.279296875
ControllerTest	-11.280144691467285
VS	-11.280267715454102
tb	-11.280874252319336
spot	-11.281009674072266
▁npc	-11.281167030334473
ftp	-11.281388282775879
jetty	-11.281732559204102
/94/94	-11.281766891479492
2008	-11.281842231750488
topic	-11.281972885131836
iterable	-11.28227710723877
ous	-11.282443046569824
imul	-11.282628059387207
dungeon	-11.283014297485352
▁FILM	-11.283036231994629
srv	-11.283059120178223
egg	-11.283097267150879
Widgets	-11.283768653869629
selected	-11.283954620361328
Art	-11.284100532531738
1.1.	-11.28428840637207
pinkie	-11.28437614440918
Send	-11.284682273864746
▁PlayFab	-11.284693717956543
Float	-11.285204887390137
instrument	-11.285547256469727
FEATURE	-11.285618782043457
Markdown	-11.285679817199707
baseline	-11.285731315612793
Lazy	-11.285870552062988
multiparty	-11.285959243774414
AM	-11.286108016967773
lc	-11.286174774169922
ell	-11.286375999450684
llvm	-11.286433219909668
@3	-11.286767959594727
percona	-11.286940574645996
mangos	-11.287031173706055
mit	-11.287542343139648
Particle	-11.288135528564453
sessions	-11.288261413574219
timeout	-11.288288116455078
student	-11.288703918457031
HelperFunctions	-11.288727760314941
iio	-11.288884162902832
tapestry	-11.288939476013184
Fit	-11.288941383361816
4_0_0	-11.289165496826172
Rss	-11.289168357849121
Fast	-11.289689064025879
Comp	-11.289874076843262
makefile	-11.290019989013672
Mi	-11.290643692016602
ymca	-11.290910720825195
minecraft	-11.290934562683105
86_64/	-11.290942192077637
blank	-11.290960311889648
ignite	-11.291089057922363
proposals	-11.292128562927246
▁openquake	-11.292241096496582
nuspec	-11.292905807495117
ROOT	-11.293540000915527
jre	-11.293776512145996
mmc	-11.294628143310547
▁Doc	-11.294646263122559
ianWarsCampaign	-11.294868469238281
▁nemo	-11.294934272766113
▁cmake	-11.295040130615234
autocomplete	-11.2950439453125
828	-11.295059204101562
HW	-11.295064926147461
inf	-11.295098304748535
vvv	-11.295147895812988
hard	-11.29518985748291
duplex	-11.295758247375488
ringin	-11.295781135559082
hyper	-11.29595947265625
Avilox	-11.2962064743042
pagination	-11.296212196350098
tough	-11.296213150024414
tzinfo	-11.29647445678711
Scroll	-11.296589851379395
2.0.	-11.29675579071045
ole	-11.296966552734375
An	-11.297518730163574
aturePack	-11.297544479370117
linalg	-11.297555923461914
Review	-11.297566413879395
NetAdmin	-11.298195838928223
argument	-11.298201560974121
Day	-11.298253059387207
eap	-11.298463821411133
pose	-11.298844337463379
IC	-11.29940414428711
CF	-11.299469947814941
OWC	-11.299782752990723
gold	-11.299996376037598
mux	-11.300642013549805
Dom	-11.300803184509277
Down	-11.300886154174805
snapshot	-11.300894737243652
chapter	-11.30103588104248
jit	-11.301787376403809
lex	-11.30279541015625
stripe	-11.302888870239258
evol	-11.30333423614502
datastructures	-11.303705215454102
pull	-11.303751945495605
invoke	-11.304088592529297
chardet	-11.304203033447266
Complex	-11.304234504699707
130_	-11.304450988769531
Ì	-11.305559158325195
▁Game	-11.305785179138184
82.	-11.305878639221191
upnp	-11.306352615356445
nova	-11.306514739990234
»	-11.306901931762695
life	-11.306912422180176
adminhtml	-11.307106971740723
mixed	-11.307191848754883
Cat	-11.30766487121582
screenshots	-11.307792663574219
getter	-11.307817459106445
hacks	-11.307842254638672
Course	-11.308239936828613
Í	-11.308245658874512
mount	-11.308279991149902
Inter	-11.3082857131958
Fire	-11.30828857421875
clockwork	-11.308414459228516
720	-11.309198379516602
factories	-11.309600830078125
Bit	-11.309697151184082
84.	-11.310343742370605
qi	-11.310742378234863
kafka	-11.310935020446777
trusty	-11.311088562011719
partner	-11.312228202819824
scanner	-11.312348365783691
wind	-11.312602996826172
dx	-11.313250541687012
Sheet	-11.313531875610352
/2018-	-11.31362247467041
symbols	-11.313711166381836
66.	-11.314010620117188
bang	-11.314047813415527
faker	-11.314064025878906
ships	-11.31425952911377
▁cells	-11.314984321594238
68.	-11.31568431854248
vp	-11.316316604614258
nls	-11.3163423538208
Limit	-11.316350936889648
plans	-11.316728591918945
▁tapestry	-11.31700611114502
libmesh	-11.317305564880371
-1-	-11.317349433898926
Setting	-11.318438529968262
010	-11.318660736083984
quad	-11.318689346313477
sxwt	-11.319070816040039
AB	-11.319159507751465
RU	-11.319243431091309
High	-11.319402694702148
Safe	-11.319561004638672
tegra	-11.319597244262695
brcm	-11.319672584533691
▁local	-11.31969928741455
▁stock	-11.320191383361816
mfd	-11.320258140563965
blame	-11.320419311523438
Advanced	-11.320420265197754
/2.0.0/	-11.320464134216309
Ju	-11.320537567138672
realm	-11.320852279663086
2006	-11.321365356445312
checker	-11.321586608886719
pkcs	-11.321647644042969
Curve	-11.321855545043945
Idle	-11.32197380065918
134	-11.32198429107666
expressions	-11.322151184082031
Ti	-11.322359085083008
navbar	-11.322392463684082
encrypt	-11.322861671447754
Small	-11.32320499420166
IM	-11.323260307312012
Mem	-11.323758125305176
orange	-11.324007034301758
eidentifier	-11.324164390563965
Min	-11.324736595153809
tizh	-11.32498836517334
Cart	-11.325006484985352
Mini	-11.325279235839844
126	-11.32547664642334
unzip	-11.325632095336914
xsl	-11.325726509094238
matcher	-11.325740814208984
condition	-11.325751304626465
Air	-11.325823783874512
wicket	-11.325861930847168
creation	-11.3258638381958
/64/64	-11.325932502746582
/66/66	-11.325946807861328
gate	-11.326472282409668
++	-11.326728820800781
Tables	-11.328330039978027
/60/60	-11.329002380371094
xla	-11.329215049743652
try	-11.329790115356445
Namespace	-11.329915046691895
assessment	-11.329998970031738
Records	-11.330156326293945
prevent	-11.33031940460205
Logo	-11.330345153808594
_92/	-11.330438613891602
Structure	-11.330475807189941
screens	-11.330565452575684
War	-11.330764770507812
ore	-11.331169128417969
toggle	-11.331262588500977
tcpdf	-11.331694602966309
Nav	-11.332141876220703
bak	-11.33243179321289
ical	-11.332504272460938
jpt	-11.33265495300293
ped	-11.33267879486084
xmlrpc	-11.333235740661621
fec	-11.333699226379395
angularjs	-11.334047317504883
kan	-11.335000038146973
agg	-11.335112571716309
Timer	-11.33513355255127
many	-11.335450172424316
/5.22.0/	-11.335509300231934
selectors	-11.335805892944336
Bus	-11.33627986907959
bool	-11.336925506591797
swf	-11.337172508239746
180	-11.33746337890625
386/	-11.337471961975098
externals	-11.33767318725586
nss	-11.337692260742188
Subscription	-11.337717056274414
gn	-11.337718963623047
aw	-11.337892532348633
Signature	-11.338276863098145
▁osu	-11.338641166687012
datasets	-11.338672637939453
▁imports	-11.339073181152344
sal	-11.339433670043945
which	-11.339668273925781
hand	-11.339733123779297
PM	-11.339771270751953
plane	-11.339797973632812
Wiki	-11.34062671661377
extlibs	-11.340659141540527
uid	-11.340753555297852
metamodel	-11.340943336486816
MM	-11.342110633850098
97.	-11.342181205749512
Wizard	-11.342442512512207
-05-	-11.343761444091797
avt	-11.34382152557373
GlobalProcessing	-11.343868255615234
inject	-11.343941688537598
webgl	-11.34432315826416
SU	-11.34461498260498
Fixture	-11.344754219055176
Trigger	-11.345232963562012
87.	-11.34533977508545
CG	-11.345431327819824
First	-11.346075057983398
405	-11.346141815185547
MC	-11.346412658691406
setting	-11.346420288085938
ron	-11.346450805664062
reminder	-11.346627235412598
jenkins	-11.34663200378418
MANIFEST	-11.346632957458496
▁FLIMfit	-11.346633911132812
PlayFabSDK	-11.34682846069336
bp	-11.34683609008789
▁Service	-11.347038269042969
meter	-11.347331047058105
Serial	-11.347440719604492
ftl	-11.34754753112793
basics	-11.347670555114746
monk	-11.347817420959473
MediaWords	-11.348052978515625
sup	-11.348095893859863
vespa	-11.348142623901367
reporting	-11.348249435424805
encoded	-11.348508834838867
completion	-11.348965644836426
tim	-11.349016189575195
SC	-11.349143028259277
Reports	-11.349884033203125
Clients	-11.349928855895996
scalable	-11.349932670593262
-09-	-11.350068092346191
)	-11.3505277633667
dlg	-11.35065746307373
tax	-11.35073471069336
Habitat	-11.350835800170898
cov	-11.350944519042969
inv	-11.351775169372559
emitter	-11.351990699768066
PerDiem	-11.3522367477417
activemq	-11.35229206085205
contrail	-11.352304458618164
Bo	-11.352344512939453
chromeos	-11.353759765625
uz	-11.353775978088379
gradient	-11.354439735412598
lip	-11.354560852050781
ob	-11.35480785369873
cycle	-11.354813575744629
Methods	-11.355003356933594
marker	-11.35504150390625
welcome	-11.35505485534668
door	-11.355716705322266
▁kubernetes	-11.356277465820312
xxxhdpi	-11.356291770935059
owl	-11.356400489807129
Virtual	-11.356451988220215
Inventory	-11.356460571289062
Dark	-11.356472969055176
secret	-11.356492042541504
landob	-11.356500625610352
mocks	-11.356538772583008
arrays	-11.356557846069336
inputs	-11.356600761413574
Question	-11.356679916381836
pal	-11.356682777404785
lot	-11.356708526611328
2378	-11.356871604919434
IL	-11.357229232788086
/8.4.0/	-11.357864379882812
Online	-11.357870101928711
tails	-11.35793399810791
antlr	-11.358061790466309
▁repository	-11.358195304870605
wf	-11.358216285705566
dic	-11.358244895935059
skip	-11.358687400817871
eslintrc	-11.358755111694336
works	-11.35927677154541
▁hr	-11.359283447265625
indices	-11.359289169311523
LMGPUImage	-11.359297752380371
spinner	-11.359347343444824
frontends	-11.359606742858887
storm	-11.359634399414062
labels	-11.359745979309082
915	-11.360002517700195
Cells	-11.360143661499023
Free	-11.360516548156738
bra	-11.360803604125977
buster	-11.360898971557617
ov	-11.36102294921875
gene	-11.361087799072266
iZ	-11.3611478805542
-10-	-11.361771583557129
eye	-11.361882209777832
Board	-11.36213493347168
books	-11.362361907958984
/80/80	-11.362428665161133
excel	-11.362428665161133
integrate	-11.362607955932617
Ba	-11.362833976745605
rsa	-11.362882614135742
fck	-11.362909317016602
union	-11.363001823425293
openbios	-11.363667488098145
56.	-11.363916397094727
Bootstrap	-11.364717483520508
HDRP	-11.36494255065918
81.	-11.365021705627441
/96/96	-11.3650484085083
sock	-11.365090370178223
AspNetCore	-11.365184783935547
Forum	-11.365241050720215
lexer	-11.36527156829834
xcconfig	-11.365315437316895
800	-11.36533260345459
junit	-11.365669250488281
sage	-11.365676879882812
visualization	-11.366058349609375
cxxtest	-11.366264343261719
Decorator	-11.36650562286377
Ops	-11.36650562286377
wd	-11.366537094116211
Mask	-11.366951942443848
Init	-11.36744499206543
aggregator	-11.367818832397461
__39__	-11.367849349975586
grey	-11.36786937713623
bitcoin	-11.367877006530762
/89/89	-11.367903709411621
modalVersion	-11.36791706085205
ans	-11.367931365966797
Keyboard	-11.367949485778809
online	-11.368592262268066
otf	-11.369183540344238
authorization	-11.369256973266602
blackberry	-11.3692626953125
390	-11.36926555633545
autopsy	-11.36933708190918
Rendering	-11.369356155395508
Deep	-11.369427680969238
tour	-11.369633674621582
mainwindow	-11.369976997375488
▁My	-11.370166778564453
Star	-11.370198249816895
coder	-11.370270729064941
Frontend	-11.370904922485352
mean	-11.371811866760254
Char	-11.372084617614746
nacelle	-11.372105598449707
delivery	-11.372140884399414
Dropbox	-11.372217178344727
Observer	-11.372525215148926
duplexer	-11.372589111328125
mls	-11.372901916503906
Robot	-11.37310791015625
arr	-11.373215675354004
88.	-11.37328052520752
elm	-11.373357772827148
cipher	-11.37353515625
RTS	-11.373991012573242
Composer	-11.374107360839844
analyses	-11.374204635620117
TP	-11.3742094039917
Behavior	-11.374981880187988
rating	-11.375008583068848
setuptools	-11.375262260437012
Tester	-11.375697135925293
Surface	-11.376420021057129
acs	-11.377520561218262
Providers	-11.377610206604004
nightly	-11.377969741821289
-06-	-11.378118515014648
marked	-11.378778457641602
cent	-11.379158973693848
Neig	-11.37939453125
injected	-11.379725456237793
aarch	-11.380459785461426
mps	-11.380492210388184
wo	-11.380636215209961
tuple	-11.38089370727539
▁Test	-11.380903244018555
checkout	-11.380918502807617
mob	-11.381912231445312
2019	-11.382061004638672
Solver	-11.382067680358887
flot	-11.382187843322754
pair	-11.382428169250488
Counter	-11.382591247558594
Broad	-11.382699012756348
met	-11.382720947265625
▁0.17/	-11.38283634185791
Stub	-11.382879257202148
BA	-11.383627891540527
throttle	-11.383646965026855
there	-11.383733749389648
Pe	-11.384018898010254
▁nova	-11.384078979492188
AppDelegate	-11.384264945983887
ami	-11.384329795837402
how	-11.384394645690918
spatial	-11.384469032287598
Translation	-11.384788513183594
this	-11.385756492614746
006.	-11.385946273803711
should	-11.386429786682129
Hierarchy	-11.386551856994629
Toolbar	-11.386847496032715
-1.0.	-11.386850357055664
ejb	-11.387012481689453
ready	-11.387540817260742
-1.7.0/	-11.387690544128418
firefox	-11.387840270996094
▁PixelDungeon	-11.388016700744629
Constraints	-11.388495445251465
_0_	-11.388993263244629
Touch	-11.389466285705566
additional	-11.389556884765625
sTest	-11.389917373657227
050	-11.3903226852417
points	-11.390323638916016
kube	-11.390620231628418
infinispan	-11.390929222106934
Issue	-11.3909330368042
wsn	-11.39095687866211
nf	-11.391012191772461
ITER	-11.391047477722168
89.	-11.39112377166748
ware	-11.391223907470703
ert	-11.391267776489258
Schedule	-11.391400337219238
95.	-11.391622543334961
cda	-11.392044067382812
well	-11.392295837402344
samsung	-11.392390251159668
datacatalog	-11.392416954040527
nxhtml	-11.393009185791016
kb	-11.393047332763672
3.2/	-11.393095970153809
kn	-11.393279075622559
ever	-11.393527030944824
Insert	-11.393731117248535
Last	-11.395066261291504
sml	-11.395244598388672
compartment	-11.395304679870605
year	-11.395357131958008
Fill	-11.395593643188477
mv	-11.39570426940918
▁os	-11.396105766296387
dg	-11.396163940429688
MX	-11.396405220031738
drag	-11.39676570892334
proyecto	-11.396777153015137
Wallet	-11.39684772491455
MA	-11.396995544433594
sched	-11.397013664245605
wikimedia	-11.39781379699707
datatypes	-11.39781665802002
License	-11.398256301879883
enc	-11.398299217224121
subsystem	-11.398331642150879
psi	-11.399275779724121
wck	-11.399293899536133
standalone	-11.399730682373047
Overlay	-11.399736404418945
simpletest	-11.399785041809082
connectivity	-11.399795532226562
74.	-11.4000883102417
hbase	-11.400172233581543
xerces	-11.40046215057373
orbit	-11.400823593139648
pn	-11.40101146697998
TS	-11.401021003723145
dto	-11.401106834411621
sail	-11.401137351989746
Other	-11.401467323303223
ative	-11.401751518249512
frequency	-11.402685165405273
ina	-11.402852058410645
extjs	-11.402853965759277
Preview	-11.403553009033203
stamp	-11.403730392456055
Super	-11.40395736694336
thrift	-11.404155731201172
VisualBasic	-11.40426254272461
kind	-11.404285430908203
ano	-11.40434741973877
Values	-11.404814720153809
SceneBuilderKit	-11.4056396484375
setter	-11.406085014343262
Managed	-11.406139373779297
cliui	-11.406193733215332
deb	-11.406759262084961
Converters	-11.407084465026855
tomcat	-11.407122611999512
oss	-11.407498359680176
PlatinumTT	-11.408601760864258
precision	-11.408611297607422
jemalloc	-11.40861988067627
storyboard	-11.408836364746094
▁my	-11.4092378616333
ally	-11.409759521484375
gml	-11.410140991210938
Patch	-11.410146713256836
ors	-11.410372734069824
83.	-11.410684585571289
99.	-11.410733222961426
Rock	-11.410770416259766
era	-11.410773277282715
GR	-11.410799980163574
144	-11.41087532043457
bitbucket	-11.411625862121582
ank	-11.411761283874512
LT	-11.411832809448242
91.	-11.412177085876465
callback	-11.412296295166016
PNG	-11.412527084350586
jaxp	-11.41258430480957
Cookie	-11.412625312805176
124	-11.412790298461914
membership	-11.4129638671875
davinci	-11.413080215454102
-1.6.0	-11.413087844848633
ute	-11.413182258605957
opengl	-11.413607597351074
▁compiler	-11.41374683380127
WPF	-11.413762092590332
cz	-11.413766860961914
nci	-11.413812637329102
PP	-11.41435718536377
nouveau	-11.414579391479492
Rendu	-11.414586067199707
ables	-11.414604187011719
und	-11.414779663085938
vala	-11.414809226989746
▁System	-11.41573715209961
experiment	-11.415792465209961
/4.02.0/	-11.416071891784668
/105/105	-11.416083335876465
127	-11.416157722473145
▁qt	-11.416436195373535
Photo	-11.416635513305664
▁automatic	-11.417523384094238
CLI	-11.418808937072754
pause	-11.418869972229004
Docs	-11.41904067993164
adjoint	-11.419132232666016
PC	-11.419292449951172
phase	-11.420492172241211
cash	-11.42061710357666
cloudbrain	-11.420649528503418
provisioning	-11.420827865600586
bib	-11.420943260192871
79.	-11.421025276184082
concurrent	-11.421183586120605
116	-11.421597480773926
Algorithms	-11.421670913696289
engines	-11.421931266784668
traffic	-11.422093391418457
baasbox	-11.422096252441406
xlsx	-11.422697067260742
0.0.	-11.423197746276855
EX	-11.423296928405762
unescape	-11.423338890075684
ED	-11.423355102539062
spawn	-11.423805236816406
tzdata	-11.424114227294922
jest	-11.424310684204102
Wd	-11.424773216247559
▁RTS	-11.424834251403809
papyrus	-11.425087928771973
Expr	-11.425338745117188
ends	-11.425433158874512
▁cagrid	-11.425573348999023
85.	-11.425602912902832
heroes	-11.425968170166016
words	-11.425996780395508
contactsmodel	-11.426169395446777
Machine	-11.426431655883789
undo	-11.426549911499023
Dictionary	-11.426589012145996
regs	-11.426962852478027
hero	-11.427552223205566
ities	-11.427558898925781
science	-11.427807807922363
LS	-11.428274154663086
timers	-11.428705215454102
texts	-11.429132461547852
cmf	-11.429583549499512
balanced	-11.429588317871094
Cursor	-11.429647445678711
-1.1.3-	-11.429679870605469
tan	-11.430180549621582
-190	-11.4306001663208
122	-11.430692672729492
ud	-11.431147575378418
-1.4.0.2/	-11.431166648864746
Refresh	-11.431172370910645
vanilla	-11.43118667602539
ted	-11.431259155273438
It	-11.431536674499512
codes	-11.432084083557129
dotnet	-11.432303428649902
maintenance	-11.432687759399414
ET	-11.43336296081543
Processing	-11.433538436889648
dLibraries	-11.433558464050293
inherit	-11.434173583984375
bsp	-11.434282302856445
vmkernel	-11.434380531311035
race	-11.435172080993652
ood	-11.43587875366211
aop	-11.436304092407227
WebApi	-11.436463356018066
als	-11.436541557312012
SL	-11.436564445495605
EE	-11.436925888061523
frames	-11.437051773071289
Beauty	-11.437271118164062
hotel	-11.437514305114746
elev	-11.437738418579102
put	-11.437812805175781
appengine	-11.437845230102539
Two	-11.437895774841309
Inline	-11.43794059753418
dog	-11.438681602478027
Statistics	-11.438729286193848
Quiz	-11.438974380493164
animate	-11.439559936523438
RenderSystem	-11.439719200134277
oa	-11.440200805664062
Compare	-11.440380096435547
flatten	-11.4404296875
elastic	-11.44043254852295
spdx	-11.440442085266113
stra	-11.440760612487793
ingTools	-11.440934181213379
solver	-11.441163063049316
▁flot	-11.441481590270996
sdl	-11.441632270812988
nodeunit	-11.441685676574707
polygon	-11.441876411437988
tiffany	-11.441887855529785
anri	-11.442117691040039
hack	-11.442167282104492
ln	-11.442171096801758
Param	-11.44239330291748
▁ros	-11.442920684814453
Byte	-11.442922592163086
Chapter	-11.443402290344238
▁grails	-11.443533897399902
autoconfigure	-11.44369888305664
author	-11.443743705749512
Localizable	-11.44497013092041
farm	-11.44527816772461
Multiple	-11.445853233337402
IntegrationTest	-11.445892333984375
tn	-11.445971488952637
/1.7.0-	-11.446083068847656
AC	-11.446179389953613
jcr	-11.446229934692383
pk	-11.446353912353516
mine	-11.446460723876953
length	-11.446494102478027
broadway	-11.446554183959961
wegas	-11.446565628051758
domains	-11.446767807006836
distributed	-11.446953773498535
Fran	-11.447657585144043
risk	-11.447908401489258
StagingArea	-11.448028564453125
datetime	-11.448772430419922
Can	-11.448776245117188
▁lisp	-11.448965072631836
Scan	-11.449091911315918
lines	-11.449389457702637
SN	-11.4495849609375
marshal	-11.449670791625977
interop	-11.449938774108887
007.	-11.449952125549316
asp	-11.450002670288086
efl	-11.450435638427734
UserBundle	-11.450499534606934
rank	-11.450516700744629
Preferences	-11.45058536529541
/104/104	-11.451143264770508
DA	-11.451400756835938
ammap	-11.451497077941895
WebSocket	-11.451637268066406
008	-11.452009201049805
Fabric	-11.45268726348877
Kiwi	-11.452692985534668
jackson	-11.4527006149292
About	-11.452713966369629
chrono	-11.453146934509277
gss	-11.453410148620605
Zip	-11.453641891479492
CO	-11.453645706176758
datastore	-11.453970909118652
Calculator	-11.454237937927246
Injection	-11.454317092895508
ew	-11.4546480178833
genmod	-11.454781532287598
insecure	-11.454964637756348
aggregate	-11.455016136169434
015.	-11.45533275604248
mgr	-11.455351829528809
atos	-11.455636978149414
automation	-11.455801010131836
physics	-11.455816268920898
computer	-11.456010818481445
ward	-11.456645011901855
otto	-11.45723819732666
dataaccess	-11.457254409790039
Attachment	-11.457395553588867
Gateway	-11.457419395446777
Blend	-11.457422256469727
uploader	-11.457552909851074
gal	-11.458052635192871
▁pics	-11.45805835723877
Break	-11.458860397338867
memoize	-11.459063529968262
submit	-11.459090232849121
RS	-11.459232330322266
ther	-11.45992374420166
aria	-11.4603271484375
009	-11.460362434387207
construct	-11.460399627685547
Signal	-11.460552215576172
detection	-11.460762023925781
accepts	-11.461166381835938
Mono	-11.46143913269043
refract	-11.46184253692627
Mon	-11.46190357208252
updraftplus	-11.462052345275879
cattle	-11.4620943069458
/95/95	-11.462141036987305
rand	-11.462542533874512
▁Data	-11.462775230407715
crt	-11.463478088378906
iot	-11.46352767944336
Visualizer	-11.46364688873291
acion	-11.463961601257324
infra	-11.46435260772705
ara	-11.464391708374023
detector	-11.464926719665527
ile	-11.464967727661133
▁N	-11.465068817138672
privacy	-11.46515941619873
tribes	-11.465222358703613
ogg	-11.465330123901367
human	-11.465994834899902
Front	-11.46650505065918
times	-11.466567993164062
ou	-11.466704368591309
Problem	-11.466778755187988
Cmdlet	-11.466865539550781
80211/	-11.466897964477539
/2011_	-11.466967582702637
han	-11.46703815460205
Integer	-11.467408180236816
117	-11.467663764953613
▁Godeps	-11.468099594116211
LocalService	-11.468329429626465
insights	-11.46871566772461
Formatting	-11.468725204467773
credit	-11.468950271606445
mq	-11.469215393066406
dss	-11.469292640686035
yet	-11.469361305236816
▁patternlab	-11.46993350982666
angle	-11.470906257629395
paas	-11.471261978149414
▁Surg	-11.471515655517578
100/100	-11.47174072265625
scheme	-11.471771240234375
focused	-11.472112655639648
ture	-11.472278594970703
emacs	-11.472383499145508
Holder	-11.473023414611816
citrus	-11.47309684753418
SDWebImage	-11.473100662231445
turn	-11.473196029663086
Receiver	-11.474074363708496
osm	-11.474096298217773
midi	-11.474385261535645
countries	-11.474714279174805
pins	-11.474905014038086
lar	-11.475090980529785
reducers	-11.475269317626953
stan	-11.475394248962402
Ac	-11.475484848022461
care	-11.475786209106445
getid	-11.475919723510742
agents	-11.47592830657959
velocity	-11.476276397705078
WS	-11.476592063903809
310	-11.477317810058594
grammar	-11.477587699890137
boy	-11.477720260620117
pvr	-11.478352546691895
JP	-11.478449821472168
Center	-11.478591918945312
Cl	-11.478646278381348
xl	-11.478822708129883
Trampoline	-11.479451179504395
CPLEX	-11.479476928710938
MOSEK	-11.479476928710938
passport	-11.479637145996094
moono	-11.479848861694336
▁bundles	-11.480252265930176
Certificate	-11.481030464172363
069	-11.481124877929688
DI	-11.481290817260742
Dx	-11.481649398803711
Tra	-11.48193073272705
boom	-11.48239517211914
sbt	-11.482443809509277
ifi	-11.482515335083008
Over	-11.482635498046875
dsp	-11.482762336730957
bcc	-11.482854843139648
Arrow	-11.482909202575684
leveldb	-11.483235359191895
820	-11.483413696289062
unsafe	-11.483492851257324
Close	-11.483614921569824
rot	-11.483981132507324
ade	-11.484258651733398
building	-11.48431396484375
449	-11.484325408935547
Sprite	-11.484370231628418
Mining	-11.484925270080566
cegui	-11.485672950744629
wan	-11.485808372497559
008.	-11.48598861694336
dyn	-11.486577033996582
contracts	-11.487015724182129
drafts	-11.487083435058594
Drop	-11.487395286560059
Sweet	-11.487481117248535
leap	-11.487658500671387
flux	-11.487686157226562
FW	-11.488911628723145
-2.3.15/	-11.489045143127441
interval	-11.489119529724121
/84/84	-11.489175796508789
pas	-11.489461898803711
Ip	-11.489566802978516
WTF	-11.489606857299805
alarm	-11.490209579467773
Bug	-11.490272521972656
WebProcess	-11.490469932556152
Return	-11.490787506103516
▁F	-11.49095344543457
Grpc	-11.491523742675781
Join	-11.491771697998047
Peer	-11.491841316223145
'	-11.492416381835938
Interceptor	-11.492420196533203
kernels	-11.492448806762695
npmconf	-11.493249893188477
FX	-11.493330955505371
confirm	-11.493877410888672
BGHUDAppKit	-11.493908882141113
MultLangWeb	-11.493929862976074
cardinal	-11.493937492370605
-4.0.0/	-11.493941307067871
WebView	-11.494290351867676
103	-11.495038986206055
Argument	-11.495523452758789
Regression	-11.495555877685547
elephas	-11.49557876586914
ora	-11.49565315246582
011.	-11.496065139770508
PE	-11.496099472045898
MI	-11.496709823608398
mui	-11.496747970581055
Segment	-11.497092247009277
ethereum	-11.49717903137207
OpenSans	-11.497212409973145
▁gnulib	-11.497251510620117
lec	-11.497398376464844
fer	-11.497483253479004
lay	-11.497969627380371
ral	-11.498250007629395
makefiles	-11.498296737670898
Composite	-11.498801231384277
Spreadsheet	-11.49881649017334
moltemplate	-11.49926471710205
93.	-11.50003719329834
van	-11.50039291381836
week	-11.50069522857666
Ajax	-11.501176834106445
floor	-11.5020751953125
ear	-11.502105712890625
jbilling	-11.502513885498047
Raw	-11.502543449401855
qm	-11.50257682800293
prototxt	-11.502703666687012
Volume	-11.502714157104492
assembly	-11.502819061279297
-2016-	-11.502854347229004
shapes	-11.503469467163086
LL	-11.503718376159668
planning	-11.503778457641602
constraint	-11.50394344329834
adminlte	-11.503960609436035
Params	-11.504064559936523
mediastream	-11.504074096679688
Dataset	-11.50407600402832
emium	-11.504082679748535
Dot	-11.504631042480469
wh	-11.504711151123047
ieee	-11.505328178405762
Europe	-11.50533676147461
boringssl	-11.505341529846191
glitch	-11.505361557006836
Launcher	-11.505517959594727
unittests	-11.505587577819824
streaming	-11.505599975585938
Perf	-11.505993843078613
nvd	-11.50641918182373
slave	-11.507135391235352
ror	-11.507477760314941
deprecate	-11.507898330688477
kvm	-11.507919311523438
009.	-11.508105278015137
cancel	-11.508544921875
▁GPIO	-11.508611679077148
-0.2	-11.509147644042969
tg	-11.509347915649414
Func	-11.509407997131348
Prototype	-11.509468078613281
_02.	-11.509783744812012
Pair	-11.510129928588867
follow	-11.510138511657715
facade	-11.51027774810791
000000	-11.510384559631348
fin	-11.510618209838867
EventListener	-11.511003494262695
-08-	-11.511454582214355
sion	-11.511869430541992
Subject	-11.511907577514648
webserver	-11.512311935424805
portlet	-11.512367248535156
BB	-11.513113021850586
020	-11.513700485229492
apm	-11.51394271850586
mrp	-11.51435375213623
Canvas	-11.51521110534668
feedback	-11.51546859741211
ful	-11.515591621398926
correct	-11.516057968139648
ScenarioTest	-11.516121864318848
nr	-11.516229629516602
Assignment	-11.51694393157959
112	-11.517173767089844
depth	-11.517200469970703
latin	-11.517374992370605
802	-11.518159866333008
DesignTime	-11.518608093261719
So	-11.518725395202637
opts	-11.518982887268066
Edge	-11.51899242401123
commander	-11.519064903259277
dispatcher	-11.51910400390625
cur	-11.519122123718262
dimens	-11.520111083984375
Sensor	-11.52019214630127
We	-11.52044677734375
▁meta	-11.520711898803711
logical	-11.520861625671387
32/3	-11.521003723144531
lim	-11.521198272705078
eco	-11.521227836608887
managed	-11.521681785583496
sapient	-11.521770477294922
medium	-11.521882057189941
Active	-11.521974563598633
orn	-11.521998405456543
inopl	-11.522453308105469
west	-11.522664070129395
Filters	-11.522931098937988
sem	-11.523092269897461
jsdoc	-11.523093223571777
uirouter	-11.52320384979248
alarms	-11.52336311340332
morph	-11.523472785949707
▁OurArt	-11.523517608642578
stockexchange	-11.523536682128906
Footer	-11.523612022399902
PR	-11.52377986907959
cyber	-11.524091720581055
▁front	-11.524105072021484
Rev	-11.524136543273926
aries	-11.524381637573242
GLSL	-11.524494171142578
ible	-11.52464771270752
voice	-11.524800300598145
lcov	-11.524843215942383
clip	-11.524907112121582
NG	-11.525497436523438
Bu	-11.525659561157227
lus	-11.525996208190918
oil	-11.526022911071777
pma	-11.526079177856445
Cpp	-11.526544570922852
010.	-11.526719093322754
Alpha	-11.526859283447266
normalization	-11.52692985534668
synth	-11.52757453918457
Clone	-11.52840805053711
WebInspectorUI	-11.528532028198242
▁indra	-11.528536796569824
decimal	-11.52854061126709
▁H	-11.528613090515137
fragments	-11.528671264648438
dbus	-11.52898120880127
decode	-11.529256820678711
Tabs	-11.529478073120117
dan	-11.5302734375
seri	-11.530723571777344
bird	-11.530974388122559
rice	-11.53099536895752
FF	-11.531031608581543
Pipe	-11.531169891357422
Conversion	-11.531590461730957
Clear	-11.531776428222656
Extra	-11.532772064208984
csi	-11.532899856567383
prog	-11.5330228805542
dw	-11.533425331115723
Bound	-11.533562660217285
/112/112	-11.53357982635498
braces	-11.534399032592773
Mixin	-11.534746170043945
rds	-11.535027503967285
offset	-11.535196304321289
krita	-11.535287857055664
▁languages	-11.535346984863281
podspec	-11.535822868347168
4.0.	-11.536093711853027
SK	-11.536128997802734
stacked	-11.53621768951416
▁B	-11.53628158569336
ken	-11.536458969116211
WebService	-11.536890029907227
kis	-11.537053108215332
Ka	-11.537097930908203
BD	-11.53713321685791
DX	-11.537230491638184
eer	-11.537529945373535
▁flow	-11.537629127502441
Roboto	-11.537809371948242
ology	-11.538480758666992
ting	-11.538618087768555
ita	-11.538619995117188
undertow	-11.538644790649414
Deployment	-11.538695335388184
award	-11.538717269897461
AF	-11.53954792022705
ii	-11.539558410644531
Cube	-11.540431022644043
160	-11.540796279907227
tele	-11.541545867919922
▁protocols	-11.541570663452148
spells	-11.542047500610352
replication	-11.5420560836792
SSL	-11.542293548583984
What	-11.542441368103027
Subscriber	-11.542485237121582
amm	-11.542754173278809
Side	-11.542797088623047
456	-11.542919158935547
paint	-11.543349266052246
jQuery	-11.543534278869629
Symbols	-11.543540000915527
ratio	-11.543604850769043
datatype	-11.543621063232422
fedorahosted	-11.543743133544922
watchdog	-11.543832778930664
▁ci	-11.5441255569458
encode	-11.544268608093262
▁database	-11.544294357299805
_4_1	-11.544507026672363
rename	-11.544715881347656
alias	-11.544868469238281
Neutral	-11.545412063598633
Snapshot	-11.545418739318848
clk	-11.545419692993164
condor	-11.545538902282715
mpc	-11.546177864074707
▁Broad	-11.546585083007812
▁basis	-11.546865463256836
rolandobernal	-11.547147750854492
Stratus	-11.547150611877441
rython	-11.547151565551758
MultiBit	-11.547232627868652
tbl	-11.547372817993164
Objective	-11.547564506530762
-280	-11.547819137573242
▁Mr	-11.548086166381836
smith	-11.548263549804688
portable	-11.548481941223145
billing	-11.548667907714844
OP	-11.548828125
Indicator	-11.549015998840332
override	-11.549333572387695
portaudio	-11.549428939819336
signup	-11.549582481384277
ServiceTest	-11.549723625183105
cha	-11.54985237121582
yu	-11.549967765808105
delta	-11.550243377685547
loaders	-11.55036449432373
USB	-11.550415992736816
NOISE	-11.550559997558594
FacebookSDK	-11.550616264343262
jsprim	-11.550633430480957
▁Act	-11.550684928894043
tle	-11.5507230758667
Interaction	-11.551126480102539
probe	-11.552006721496582
PA	-11.552270889282227
packaging	-11.552285194396973
budget	-11.552303314208984
markup	-11.55259895324707
Groups	-11.553165435791016
EN	-11.553370475769043
▁semantic	-11.553526878356934
ard	-11.554864883422852
bw	-11.554986000061035
threads	-11.555459022521973
fbx	-11.555499076843262
pace	-11.555520057678223
CMSIS	-11.555718421936035
Algorithm	-11.556192398071289
0014	-11.556244850158691
watcher	-11.556556701660156
retry	-11.556696891784668
gy	-11.557170867919922
Repositories	-11.557442665100098
band	-11.557506561279297
ated	-11.557538986206055
Nu	-11.557857513427734
fil	-11.557860374450684
cos	-11.558037757873535
ker	-11.558052062988281
tsv	-11.558361053466797
ach	-11.55843448638916
Spatial	-11.558537483215332
coq	-11.55879020690918
Pin	-11.558880805969238
specific	-11.559126853942871
Interpreter	-11.559174537658691
strategies	-11.559174537658691
pixmaps	-11.559310913085938
Tags	-11.559652328491211
haxe	-11.560425758361816
EM	-11.560429573059082
754	-11.560691833496094
absolute	-11.560903549194336
Extractor	-11.561019897460938
oop	-11.56171703338623
natural	-11.562639236450195
parsing	-11.562643051147461
half	-11.56290340423584
crud	-11.563179969787598
cls	-11.563396453857422
Annotations	-11.563469886779785
SI	-11.563501358032227
ssa	-11.564003944396973
shadows	-11.564104080200195
▁share	-11.564118385314941
Collision	-11.564361572265625
HotSpot	-11.564371109008789
pseudo	-11.564376831054688
Lite	-11.5643892288208
2022	-11.564565658569336
wtf	-11.56470012664795
iks	-11.564779281616211
fmt	-11.565184593200684
_001.	-11.565291404724121
translate	-11.565569877624512
Strings	-11.565754890441895
ReactiveObjC	-11.566022872924805
Sharing	-11.566133499145508
Uni	-11.566326141357422
composite	-11.567383766174316
heat	-11.567423820495605
invariant	-11.567718505859375
Wrap	-11.56775188446045
Way	-11.567811012268066
▁MrCMS	-11.56785774230957
Presentation	-11.56788158416748
druid	-11.567902565002441
alma	-11.568086624145508
92.	-11.568197250366211
tec	-11.568562507629395
unison	-11.568933486938477
CMake	-11.569011688232422
SW	-11.569467544555664
selftests	-11.569648742675781
xchat	-11.569791793823242
Based	-11.569988250732422
Requests	-11.57009506225586
Metrics	-11.570096015930176
ssf	-11.570998191833496
Animations	-11.571125984191895
▁Bundle	-11.571454048156738
xy	-11.571507453918457
Nodes	-11.572286605834961
cor	-11.57241153717041
141	-11.572503089904785
gar	-11.572855949401855
prettify	-11.573098182678223
youtube	-11.57310676574707
Areas	-11.57334041595459
ador	-11.574141502380371
adb	-11.574779510498047
StarterKit	-11.574861526489258
handling	-11.574888229370117
Big	-11.574949264526367
Spell	-11.575085639953613
panda	-11.5755615234375
NT	-11.576173782348633
starts	-11.576382637023926
Sylius	-11.576607704162598
fsl	-11.576651573181152
sysfs	-11.576692581176758
MantidQt	-11.576750755310059
sir	-11.576921463012695
openerp	-11.57698917388916
dox	-11.577062606811523
Manage	-11.577232360839844
013.	-11.577369689941406
whitespace	-11.577369689941406
012.	-11.577486038208008
checkpoint	-11.578081130981445
533	-11.578181266784668
Rate	-11.578208923339844
osx	-11.57822322845459
qr	-11.578704833984375
ating	-11.579140663146973
Slide	-11.57914924621582
283	-11.579326629638672
PDF	-11.57934856414795
Note	-11.579477310180664
ams	-11.579898834228516
splash	-11.580102920532227
wg	-11.580307960510254
Boolean	-11.580313682556152
opsi	-11.580533981323242
00.	-11.581093788146973
Faker	-11.581902503967285
Calculation	-11.581903457641602
emc	-11.582267761230469
899	-11.582356452941895
bz	-11.582736015319824
vma	-11.583168029785156
Physics	-11.583673477172852
nacl	-11.584736824035645
vid	-11.585213661193848
collector	-11.58525562286377
Lu	-11.585267066955566
▁Sumo	-11.585454940795898
Mike	-11.58547306060791
ProCenter	-11.585489273071289
2.2.1/	-11.585613250732422
teamwork	-11.585787773132324
CT	-11.585906028747559
merger	-11.586346626281738
tier	-11.586783409118652
predis	-11.586902618408203
Voice	-11.587244033813477
/98/98	-11.587307929992676
ocaml	-11.587421417236328
sqlalchemy	-11.58747673034668
250	-11.587916374206543
Indexer	-11.588118553161621
152	-11.588191032409668
manuals	-11.588516235351562
062	-11.588587760925293
men	-11.588614463806152
AutumnJam	-11.5889892578125
cucumber	-11.589008331298828
sales	-11.589679718017578
disp	-11.589689254760742
pictures	-11.589753150939941
frameworkset	-11.58993911743164
▁matlab	-11.590041160583496
cmds	-11.590546607971191
wrappy	-11.590890884399414
▁engines	-11.591165542602539
nm	-11.591185569763184
msp	-11.591374397277832
▁deps	-11.59139633178711
/3.0.0/	-11.591532707214355
WF	-11.591558456420898
plots	-11.592373847961426
mus	-11.592392921447754
boxes	-11.592504501342773
strike	-11.592572212219238
adc	-11.592720985412598
grant	-11.592966079711914
sans	-11.593113899230957
/00-	-11.593273162841797
WP	-11.593805313110352
▁L	-11.594019889831543
company	-11.594306945800781
Santas	-11.594348907470703
/103/103	-11.594362258911133
boolean	-11.594364166259766
▁cdap	-11.594826698303223
tie	-11.594852447509766
Arm	-11.594948768615723
▁image	-11.595011711120605
MainWindow	-11.595052719116211
orders	-11.595239639282227
▁django	-11.595990180969238
iss	-11.596098899841309
Ctrl	-11.596151351928711
rad	-11.596351623535156
cdap	-11.59648323059082
Lua	-11.596707344055176
cut	-11.5969877243042
480	-11.597436904907227
joint	-11.597506523132324
cask	-11.597678184509277
liquid	-11.597929954528809
positive	-11.597947120666504
▁controller	-11.59813117980957
clustering	-11.598784446716309
nom	-11.5988130569458
scripting	-11.599132537841797
exo	-11.5992431640625
Am	-11.599465370178223
Only	-11.599586486816406
AN	-11.599862098693848
lightness	-11.599960327148438
▁make	-11.600069999694824
Mar	-11.60013484954834
uck	-11.600204467773438
pid	-11.600253105163574
ending	-11.601244926452637
hljs	-11.60164737701416
CI	-11.601815223693848
subscription	-11.602291107177734
iOSClient	-11.602888107299805
feeds	-11.603104591369629
dal	-11.603154182434082
Middleware	-11.603352546691895
zanin	-11.603354454040527
multipipe	-11.60362720489502
zencoder	-11.603730201721191
Soft	-11.603877067565918
road	-11.604191780090332
▁categories	-11.604501724243164
TF	-11.604557037353516
Ja	-11.604604721069336
▁addon	-11.605055809020996
UnityTestTools	-11.605152130126953
Twitter	-11.605157852172852
googleapis	-11.605648040771484
446	-11.605709075927734
Social	-11.60571575164795
1.7.0_	-11.606487274169922
xtensa	-11.607010841369629
psy	-11.607032775878906
ras	-11.607062339782715
second	-11.607064247131348
150.	-11.607067108154297
MSProject	-11.607139587402344
spreadsheet	-11.60848331451416
Dto	-11.608752250671387
stopwords	-11.60906982421875
Deploy	-11.61054515838623
Angular	-11.610603332519531
restore	-11.610857963562012
Watch	-11.611689567565918
lesson	-11.611780166625977
ake	-11.612436294555664
ement	-11.613317489624023
CP	-11.613570213317871
▁thirdparty	-11.61384391784668
naming	-11.614253044128418
hints	-11.614901542663574
PB	-11.615180015563965
Cargo	-11.615294456481934
gst	-11.615525245666504
lectures	-11.61567497253418
Arrays	-11.615901947021484
battery	-11.616081237792969
/61/61	-11.61618709564209
Validate	-11.616287231445312
IdentityServer	-11.616336822509766
016.	-11.616405487060547
Na	-11.616495132446289
If	-11.616620063781738
-150	-11.616870880126953
768	-11.61726188659668
gear	-11.617606163024902
Producer	-11.61790943145752
Encoding	-11.617937088012695
ISO	-11.6181058883667
cho	-11.618451118469238
BS	-11.619329452514648
Zone	-11.620361328125
usa	-11.620521545410156
ground	-11.620926856994629
▁redis	-11.620938301086426
pager	-11.621191024780273
550	-11.62157154083252
-2.7.0/	-11.62158489227295
Alias	-11.621709823608398
TheMin	-11.621824264526367
▁Packages	-11.622055053710938
NLog	-11.623407363891602
esciencecenter	-11.623422622680664
756	-11.623725891113281
▁API	-11.624063491821289
bk	-11.624066352844238
ions	-11.624150276184082
_8_8	-11.624506950378418
_01_4	-11.624576568603516
processors	-11.625048637390137
hwmon	-11.62557601928711
Length	-11.626185417175293
▁demos	-11.626261711120605
Bad	-11.626444816589355
barcode	-11.626519203186035
permission	-11.626989364624023
%	-11.626995086669922
Choice	-11.627118110656738
azy	-11.6272554397583
EL	-11.627479553222656
133	-11.627518653869629
gateways	-11.627617835998535
Fake	-11.627829551696777
resourcemanager	-11.62789249420166
Migration	-11.627959251403809
MT	-11.628009796142578
cljs	-11.628080368041992
diana	-11.628172874450684
Profiler	-11.628777503967285
surf	-11.628961563110352
ckpt	-11.629413604736328
Self	-11.62941837310791
bucket	-11.62941837310791
geoip	-11.629539489746094
virt	-11.629658699035645
▁unison	-11.629745483398438
conditions	-11.629810333251953
columns	-11.63026237487793
kirki	-11.630824089050293
231	-11.631254196166992
▁transport	-11.63151741027832
algo	-11.63177490234375
Seq	-11.63191032409668
oid	-11.632128715515137
▁view	-11.632286071777344
cons	-11.632373809814453
Intro	-11.632458686828613
backbone	-11.632683753967285
cassandra	-11.632683753967285
repositories	-11.632684707641602
atabou	-11.632695198059082
▁jpa	-11.632707595825195
ParserTest	-11.632826805114746
dav	-11.633743286132812
▁misc	-11.633949279785156
tremolo	-11.634543418884277
Authorization	-11.634560585021973
SQLite	-11.634591102600098
ON	-11.635180473327637
▁apollo	-11.63521957397461
month	-11.63555908203125
0.1.	-11.635773658752441
terms	-11.635812759399414
mol	-11.635856628417969
620	-11.635878562927246
rdb	-11.636042594909668
137	-11.636080741882324
pear	-11.636369705200195
dictionary	-11.63641357421875
supplicant	-11.6364164352417
Promise	-11.636418342590332
ay	-11.63659381866455
▁Legends	-11.638310432434082
owin	-11.638566017150879
3.4.	-11.638766288757324
Ne	-11.638936042785645
Contracts	-11.639128684997559
▁script	-11.639325141906738
Year	-11.639870643615723
▁archives	-11.640005111694336
Cli	-11.640046119689941
/2.0.0.0/	-11.640137672424316
ctx	-11.64020824432373
money	-11.640216827392578
JSONStream	-11.640284538269043
mutations	-11.640536308288574
130	-11.640735626220703
working	-11.64084529876709
192	-11.64094066619873
Variables	-11.641430854797363
Monad	-11.641829490661621
psychopy	-11.64202880859375
diag	-11.642064094543457
ode	-11.642417907714844
Explorer	-11.642542839050293
laser	-11.642951965332031
▁Man	-11.643150329589844
bre	-11.643211364746094
QA	-11.64356803894043
Short	-11.644143104553223
kv	-11.644503593444824
cudd	-11.644543647766113
internet	-11.644832611083984
LY	-11.645045280456543
sphere	-11.64552116394043
Lookup	-11.64682674407959
ula	-11.646902084350586
Tax	-11.6470365524292
hol	-11.647087097167969
▁crm	-11.647523880004883
temporal	-11.647679328918457
available	-11.64768123626709
Glyph	-11.647682189941406
▁Counterpicks	-11.647683143615723
RabbitFarm	-11.647690773010254
serialize	-11.647839546203613
cloudguard	-11.647897720336914
Monolog	-11.64798641204834
cabal	-11.64801025390625
Benchmark	-11.648077011108398
funcs	-11.648107528686523
▁Ogre	-11.64825439453125
detects	-11.64854907989502
areas	-11.649223327636719
030	-11.649321556091309
loci	-11.649415016174316
Alamofire	-11.649442672729492
Fix	-11.649900436401367
rpm	-11.649903297424316
rap	-11.650025367736816
GS	-11.65009880065918
devise	-11.650315284729004
freeze	-11.650357246398926
▁proto	-11.650528907775879
neat	-11.650585174560547
visualize	-11.650896072387695
oda	-11.650922775268555
Audit	-11.650959014892578
qq	-11.651023864746094
Article	-11.65146541595459
kunena	-11.651470184326172
wordwrap	-11.651552200317383
derived	-11.651707649230957
jaxws	-11.651785850524902
ubl	-11.651915550231934
-2.0.	-11.652196884155273
Mat	-11.652435302734375
tosca	-11.652517318725586
spf	-11.652993202209473
Cor	-11.653016090393066
AID	-11.653398513793945
Printer	-11.653487205505371
tron	-11.653573989868164
cells	-11.65360164642334
devops	-11.653623580932617
kar	-11.654521942138672
atl	-11.65506649017334
Africa	-11.655264854431152
▁LGPL	-11.655268669128418
smile	-11.655336380004883
passthrough	-11.655447959899902
workshop	-11.655471801757812
openy	-11.655588150024414
tokenizer	-11.656115531921387
oldVersion	-11.656122207641602
Flat	-11.656182289123535
191	-11.656221389770508
editing	-11.657005310058594
bubble	-11.657018661499023
Comparator	-11.657164573669434
Scanner	-11.657188415527344
Vertex	-11.657244682312012
bread	-11.657297134399414
Publish	-11.658519744873047
Final	-11.65871810913086
texture	-11.65872573852539
Contract	-11.658907890319824
cypher	-11.659063339233398
Merchello	-11.659072875976562
AUTHORS	-11.659077644348145
Numeric	-11.659077644348145
homme	-11.659082412719727
ports	-11.65932846069336
ified	-11.659628868103027
qua	-11.659687995910645
Next	-11.659847259521484
HandlerTest	-11.660030364990234
He	-11.660547256469727
vel	-11.660691261291504
Circle	-11.66073226928711
pac	-11.660773277282715
monocle	-11.660975456237793
subject	-11.660980224609375
Immutable	-11.660984992980957
sakai	-11.660995483398438
relative	-11.661018371582031
-2.2.1/	-11.661043167114258
Lab	-11.661155700683594
rat	-11.66124439239502
photos	-11.66158390045166
solve	-11.661874771118164
Codec	-11.661934852600098
Atlas	-11.661995887756348
diagram	-11.662135124206543
certificate	-11.662216186523438
Wire	-11.662479400634766
svc	-11.66256046295166
androidx	-11.662660598754883
urllib	-11.662826538085938
SHOR	-11.662912368774414
▁Networking	-11.66292667388916
armor	-11.663193702697754
Movie	-11.663246154785156
▁DV	-11.663434982299805
xor	-11.66365909576416
icard	-11.66395092010498
accept	-11.663962364196777
prima	-11.66443920135498
modes	-11.664525985717773
ANGLE	-11.664819717407227
writable	-11.664824485778809
Evaluator	-11.664856910705566
/99/99	-11.664933204650879
Sum	-11.664987564086914
fullcalendar	-11.664995193481445
pipelines	-11.665489196777344
sea	-11.665702819824219
2.7.	-11.665850639343262
Migrations	-11.66585922241211
019.	-11.666038513183594
Selenium	-11.666736602783203
arq	-11.66675090789795
PhoneNumber	-11.666792869567871
014.	-11.666909217834473
conn	-11.66696834564209
230	-11.66700267791748
▁Image	-11.667139053344727
menus	-11.667147636413574
problem	-11.66717529296875
animated	-11.667798042297363
Score	-11.66793155670166
Popup	-11.668119430541992
▁Redis	-11.66812801361084
705	-11.668305397033691
DataTables	-11.66855239868164
Shop	-11.668563842773438
▁w	-11.668587684631348
patient	-11.668668746948242
Principal	-11.668669700622559
Survey	-11.668671607971191
XmlRpc	-11.66867733001709
crunch	-11.668686866760254
Hex	-11.668787956237793
CX	-11.668926239013672
tip	-11.669134140014648
ansible	-11.669163703918457
Blob	-11.669476509094238
Anim	-11.67000675201416
coal	-11.670110702514648
Sp	-11.67020034790039
ado	-11.670219421386719
289	-11.670414924621582
Italic	-11.670552253723145
ord	-11.670565605163574
GUILayout	-11.670647621154785
mailgun	-11.670653343200684
certs	-11.670777320861816
GC	-11.670863151550293
cplus	-11.670919418334961
don	-11.671002388000488
toc	-11.671286582946777
Pr	-11.671374320983887
Tracking	-11.671496391296387
▁re	-11.671599388122559
1251/	-11.672025680541992
hosted	-11.672113418579102
cassettes	-11.672533988952637
Period	-11.672542572021484
palette	-11.672545433044434
alien	-11.672624588012695
Detector	-11.672715187072754
alloy	-11.6727876663208
131	-11.673401832580566
▁repo	-11.673404693603516
OT	-11.673616409301758
station	-11.674322128295898
2.82	-11.674365997314453
lambda	-11.674477577209473
xenon	-11.675053596496582
compression	-11.675115585327148
miz	-11.675427436828613
sounds	-11.67591667175293
nokogiri	-11.676424980163574
mega	-11.676467895507812
/63/63	-11.676556587219238
▁WEB	-11.676695823669434
OR	-11.67669677734375
atlas	-11.677183151245117
Green	-11.677499771118164
2704/	-11.677508354187012
/2019-	-11.677512168884277
ascii	-11.677910804748535
023.	-11.678060531616211
FP	-11.67820930480957
Split	-11.678309440612793
legislators	-11.678363800048828
Quote	-11.678365707397461
regulator	-11.678365707397461
boo	-11.678486824035645
stuff	-11.678563117980957
Startup	-11.67880630493164
HL	-11.67928409576416
total	-11.679450988769531
Mark	-11.679564476013184
omit	-11.679574966430664
hosts	-11.679638862609863
drawer	-11.67972183227539
attach	-11.680296897888184
Discord	-11.680314064025879
rockstor	-11.680329322814941
tactic	-11.680357933044434
_75_	-11.680371284484863
logos	-11.680416107177734
sca	-11.681236267089844
Slice	-11.68173599243164
personal	-11.681857109069824
090	-11.682050704956055
financial	-11.68226432800293
Redis	-11.68239688873291
country	-11.682415008544922
Sys	-11.682526588439941
vol	-11.682580947875977
Initializer	-11.68310260772705
prob	-11.683340072631836
mapreduce	-11.683703422546387
constraints	-11.683931350708008
symlink	-11.684060096740723
producer	-11.684220314025879
comparison	-11.684222221374512
80211	-11.684547424316406
Dump	-11.684605598449707
Projects	-11.684612274169922
Links	-11.684657096862793
ioctl	-11.684772491455078
IMG	-11.684995651245117
6_1	-11.685057640075684
exchange	-11.685354232788086
modifier	-11.685628890991211
2012_	-11.685674667358398
signals	-11.685685157775879
Assign	-11.685864448547363
fac	-11.685879707336426
Blue	-11.686140060424805
DumpRenderTree	-11.686187744140625
▁patches	-11.686540603637695
progressbar	-11.687033653259277
021.	-11.687260627746582
WMS	-11.68729305267334
grade	-11.687538146972656
foot	-11.687771797180176
pcm	-11.688045501708984
append	-11.688146591186523
-0.9.5/	-11.688167572021484
chan	-11.688773155212402
cop	-11.688880920410156
newview	-11.68932819366455
plug	-11.68964958190918
kns	-11.689753532409668
pink	-11.689990997314453
dos	-11.69010066986084
Handling	-11.690112113952637
017.	-11.690479278564453
iop	-11.690607070922852
657	-11.690977096557617
Em	-11.691095352172852
matic	-11.69117259979248
documents	-11.69136905670166
ffffff	-11.692085266113281
NotFound	-11.692089080810547
Upgrade	-11.692117691040039
research	-11.692309379577637
leds	-11.692337036132812
fab	-11.69237232208252
inflight	-11.692537307739258
titan	-11.692617416381836
monkey	-11.6926908493042
dubbo	-11.692719459533691
leg	-11.692874908447266
joi	-11.692936897277832
glib	-11.693004608154297
Draw	-11.693586349487305
claim	-11.69375228881836
mw	-11.69378662109375
pane	-11.693949699401855
ure	-11.693967819213867
suffix	-11.69406795501709
Ldap	-11.694141387939453
touchscreen	-11.694317817687988
778	-11.694453239440918
Dumper	-11.694581031799316
▁sim	-11.694665908813477
plant	-11.694777488708496
edges	-11.695331573486328
Styles	-11.69538688659668
classpath	-11.695722579956055
cab	-11.69582748413086
silver	-11.696022033691406
Living	-11.69604206085205
Tr	-11.69604206085205
Terrain	-11.696142196655273
Rel	-11.696297645568848
Extended	-11.696364402770996
addr	-11.696703910827637
ipc	-11.697196960449219
InputStream	-11.697760581970215
introduction	-11.698027610778809
stendhal	-11.698029518127441
ninja	-11.698036193847656
▁skyline	-11.698039054870605
crash	-11.698114395141602
▁easybuild	-11.698116302490234
fork	-11.698164939880371
ele	-11.698214530944824
jb	-11.698284149169922
nor	-11.698631286621094
RP	-11.698678970336914
FactoryTest	-11.69873046875
Attr	-11.698731422424316
nbproject	-11.698904037475586
customize	-11.698921203613281
▁Forge	-11.698925018310547
continuuity	-11.7000150680542
PRO	-11.700305938720703
prim	-11.700345039367676
linker	-11.700373649597168
Classic	-11.70055103302002
When	-11.700637817382812
chai	-11.700982093811035
food	-11.701122283935547
515	-11.701881408691406
Picture	-11.70201587677002
018.	-11.702117919921875
exome	-11.70232105255127
Lens	-11.702643394470215
xcode	-11.703134536743164
playlist	-11.703993797302246
TE	-11.704106330871582
gradlew	-11.704375267028809
GHC	-11.704384803771973
Roles	-11.704390525817871
Smart	-11.70450210571289
▁Animations	-11.704950332641602
Campaign	-11.705062866210938
SD	-11.705167770385742
organization	-11.70533275604248
301	-11.705507278442383
declarative	-11.705716133117676
Low	-11.705951690673828
cloudfoundry	-11.705989837646484
qj	-11.706130981445312
▁bundle	-11.706319808959961
_00_	-11.706369400024414
Ha	-11.706700325012207
ink	-11.706957817077637
297	-11.707122802734375
ava	-11.70725154876709
association	-11.707347869873047
corr	-11.70757007598877
DL	-11.707664489746094
RA	-11.707793235778809
lk	-11.707796096801758
Translator	-11.708008766174316
VR	-11.708013534545898
coveralls	-11.708016395568848
Quest	-11.708101272583008
919	-11.70833683013916
CON	-11.70898151397705
-2.1.	-11.709211349487305
matlab	-11.709339141845703
loss	-11.709357261657715
Disk	-11.709403038024902
430	-11.709407806396484
AzurePowershell	-11.71002197265625
Manual	-11.710026741027832
-2.2.	-11.710031509399414
hci	-11.710269927978516
timestamp	-11.710323333740234
langtools	-11.710428237915039
MetaData	-11.710991859436035
/6/6	-11.711609840393066
anti	-11.711726188659668
IAmNotified	-11.712026596069336
Marker	-11.712141036987305
Specification	-11.712274551391602
▁Gui	-11.712822914123535
OpenGL	-11.712960243225098
Face	-11.712964057922363
EF	-11.713072776794434
alerts	-11.713515281677246
2020	-11.713910102844238
Sevilla	-11.714038848876953
ffmpeg	-11.714068412780762
finished	-11.714120864868164
timesheet	-11.714600563049316
Mgr	-11.71462631225586
mex	-11.714977264404297
ley	-11.7160005569458
Gallery	-11.716064453125
0002	-11.716142654418945
pupp	-11.716144561767578
/97/97	-11.716320037841797
Jump	-11.716384887695312
xhr	-11.716447830200195
bert	-11.716641426086426
bun	-11.716686248779297
compressed	-11.71686840057373
Redirect	-11.717459678649902
stylelint	-11.71750545501709
Health	-11.718088150024414
hamcrest	-11.718090057373047
interpolate	-11.71809196472168
twitlog	-11.718120574951172
/92/92	-11.718206405639648
HttpKernel	-11.718210220336914
weex	-11.71862506866455
niki	-11.719205856323242
Comments	-11.719661712646484
openhab	-11.720110893249512
Reverse	-11.720120429992676
calculator	-11.720126152038574
Grav	-11.720172882080078
▁product	-11.720364570617676
Simulation	-11.720590591430664
osenv	-11.72070026397705
SDL	-11.720890998840332
hat	-11.7210111618042
BL	-11.721047401428223
TZ	-11.721158027648926
udp	-11.721550941467285
sntp	-11.722097396850586
avango	-11.722162246704102
GitHub	-11.72216796875
perm	-11.722258567810059
Li	-11.7222900390625
Ko	-11.722648620605469
libwebkit	-11.72286605834961
Stage	-11.722921371459961
observer	-11.722929000854492
branding	-11.723128318786621
objc	-11.7233247756958
tslint	-11.72332763671875
grav	-11.723352432250977
tal	-11.723381042480469
▁Services	-11.72341537475586
golangci	-11.723527908325195
-2.0.0	-11.723880767822266
soap	-11.723897933959961
linked	-11.723912239074707
bgl	-11.724143981933594
Defaults	-11.724530220031738
ann	-11.724583625793457
ceph	-11.724642753601074
openapi	-11.724865913391113
Permissions	-11.72510814666748
ListItem	-11.725642204284668
transformer	-11.725723266601562
phpbb	-11.725760459899902
checkers	-11.725802421569824
bsd	-11.726092338562012
▁listenbrainz	-11.726223945617676
ctionbarsherlock	-11.726226806640625
family	-11.726229667663574
Polygon	-11.72623062133789
activation	-11.72623062133789
Struct	-11.726238250732422
duktape	-11.726238250732422
mage	-11.726658821105957
sas	-11.726837158203125
neuron	-11.726892471313477
▁for	-11.727014541625977
rotate	-11.72713565826416
Lang	-11.727457046508789
transformation	-11.72785472869873
seo	-11.728177070617676
Conference	-11.728279113769531
baseIs	-11.728595733642578
slick	-11.728767395019531
Make	-11.728799819946289
fst	-11.729185104370117
317	-11.729379653930664
Hub	-11.729401588439941
DataProvider	-11.72955322265625
molecules	-11.72995376586914
/114/114	-11.730328559875488
jubula	-11.730347633361816
Motion	-11.730384826660156
azuredeploy	-11.730436325073242
-1.7.7/	-11.73046875
028.	-11.730631828308105
unset	-11.730903625488281
OC	-11.73122501373291
hazelcast	-11.731435775756836
022.	-11.731710433959961
Wall	-11.731712341308594
294	-11.731722831726074
NC	-11.732270240783691
implementations	-11.732336044311523
clipboard	-11.732447624206543
Stop	-11.732454299926758
Micro	-11.732860565185547
Drawing	-11.732863426208496
tei	-11.732863426208496
arrows	-11.734233856201172
Inc	-11.73424243927002
haskell	-11.734435081481934
Complete	-11.73443603515625
Interval	-11.734478950500488
Mouse	-11.73476505279541
__47__	-11.734825134277344
ste	-11.734858512878418
ump	-11.734907150268555
tdb	-11.734976768493652
-1.2.2/	-11.735877990722656
europa	-11.73589038848877
modular	-11.73604965209961
Macro	-11.736224174499512
672	-11.736344337463379
middle	-11.736369132995605
2013-	-11.73644733428955
EXPERIMENTAL	-11.736474990844727
vertical	-11.736517906188965
bnd	-11.73660659790039
serializers	-11.736763954162598
utter	-11.736893653869629
▁unity	-11.737147331237793
emp	-11.737704277038574
020.	-11.738425254821777
guest	-11.738448143005371
knowledge	-11.738563537597656
StaticMesh	-11.73858642578125
hathor	-11.73858642578125
Done	-11.739081382751465
Training	-11.739326477050781
Operators	-11.739737510681152
fy	-11.739828109741211
Distribution	-11.740486145019531
▁root	-11.740572929382324
jelly	-11.740633964538574
iePlus	-11.740782737731934
299	-11.740884780883789
▁locale	-11.7412109375
ClassLoader	-11.741230010986328
▁conf	-11.741439819335938
ctr	-11.741541862487793
jwt	-11.741991996765137
rewrite	-11.74205207824707
pmc	-11.742137908935547
__/__	-11.742182731628418
eshu	-11.742304801940918
stl	-11.742372512817383
Basics	-11.742536544799805
boilerplate	-11.742706298828125
marketing	-11.742719650268555
comedi	-11.742827415466309
▁webserver	-11.742886543273926
geolocation	-11.74311637878418
135	-11.743314743041992
lyc	-11.743352890014648
aba	-11.743435859680176
kd	-11.743451118469238
NP	-11.743561744689941
hour	-11.743718147277832
initialize	-11.74422550201416
named	-11.744596481323242
Stock	-11.744790077209473
pump	-11.744848251342773
qrcode	-11.745317459106445
identifier	-11.74532413482666
▁try	-11.74561882019043
nuc	-11.745686531066895
ire	-11.745748519897461
datetimepicker	-11.746935844421387
ycrawl	-11.747089385986328
-02-	-11.747183799743652
dataTables	-11.747299194335938
Drawer	-11.747543334960938
timing	-11.74755573272705
club	-11.747747421264648
Ground	-11.747864723205566
▁configs	-11.747946739196777
dtd	-11.748106956481934
KR	-11.748507499694824
Handlers	-11.748546600341797
▁Map	-11.748794555664062
CHANGES	-11.748958587646484
physical	-11.748963356018066
Qu	-11.74950885772705
154	-11.749516487121582
tail	-11.749650001525879
Accessor	-11.749720573425293
nau	-11.749820709228516
▁UI	-11.750167846679688
-1.4.	-11.750614166259766
128.	-11.750753402709961
LFTincanLrs	-11.751038551330566
-84-655-	-11.751045227050781
/2013/06/	-11.751073837280273
Mutable	-11.751233100891113
was	-11.751632690429688
Author	-11.75182056427002
295	-11.751832962036133
camp	-11.75217056274414
▁board	-11.7523193359375
ub	-11.752511024475098
TextField	-11.752638816833496
ave	-11.752952575683594
▁profile	-11.753083229064941
Umbraco	-11.753144264221191
success	-11.75314712524414
SRV	-11.753259658813477
centos	-11.75367259979248
semi	-11.754569053649902
▁doxygen	-11.754631996154785
grim	-11.754742622375488
170	-11.75502872467041
initializers	-11.755146980285645
Animated	-11.755256652832031
/2.0.0-	-11.755270004272461
Uri	-11.755366325378418
badge	-11.755602836608887
Cmd	-11.75567626953125
gitlab	-11.755873680114746
384	-11.755879402160645
▁report	-11.756083488464355
179	-11.75698471069336
Valid	-11.757284164428711
shuffle	-11.757352828979492
Tinymce	-11.757376670837402
easyconfigs	-11.757598876953125
Actor	-11.757621765136719
/45/45	-11.757658004760742
obs	-11.757780075073242
zones	-11.75843620300293
jk	-11.758586883544922
▁to	-11.758687019348145
uart	-11.758909225463867
OSX	-11.759095191955566
Optimization	-11.759431838989258
rem	-11.7595853805542
umul	-11.759828567504883
mid	-11.760564804077148
548	-11.76056957244873
zy	-11.760643005371094
080	-11.761147499084473
255	-11.761539459228516
450	-11.761558532714844
Child	-11.761577606201172
critic	-11.761604309082031
Modifier	-11.761621475219727
rag	-11.761817932128906
wise	-11.76185131072998
south	-11.762042999267578
SO	-11.762640953063965
199	-11.763529777526855
Yaml	-11.763690948486328
Lucene	-11.763693809509277
Organization	-11.763694763183594
/8.5.0.	-11.763700485229492
Detection	-11.763726234436035
▁dhis	-11.76396369934082
NX	-11.763980865478516
alter	-11.764266014099121
▁Storm	-11.764270782470703
fabs	-11.764689445495605
supported	-11.764739036560059
ING	-11.764801979064941
pch	-11.765061378479004
bal	-11.765207290649414
italic	-11.765423774719238
trunc	-11.765555381774902
reactive	-11.765755653381348
blueprint	-11.765830993652344
ajd	-11.76596450805664
Zoom	-11.765990257263184
022	-11.766436576843262
Cake	-11.766596794128418
relationship	-11.767425537109375
Traits	-11.76752758026123
quality	-11.767532348632812
4_14_	-11.768476486206055
iw	-11.768680572509766
igma	-11.768896102905273
Why	-11.768937110900879
projection	-11.769359588623047
085	-11.769466400146484
animations	-11.769852638244629
Deprecated	-11.770075798034668
NOTICE	-11.770082473754883
Cap	-11.7700834274292
▁MvcApplication	-11.7700834274292
torrent	-11.770116806030273
BuilderTest	-11.770273208618164
270	-11.77062702178955
TestRunner	-11.770883560180664
keyword	-11.771171569824219
Drag	-11.771208763122559
quest	-11.771345138549805
LA	-11.771401405334473
dompdf	-11.771650314331055
XS	-11.77181625366211
notebook	-11.771965026855469
think	-11.771978378295898
Grammar	-11.772211074829102
Business	-11.772212028503418
epsilon	-11.772212982177734
WK	-11.77239990234375
DBSource	-11.772555351257324
gra	-11.77255630493164
Updater	-11.77260684967041
320	-11.772682189941406
dim	-11.77306842803955
inspect	-11.773197174072266
024.	-11.7732515335083
1024	-11.773773193359375
bplist	-11.773993492126465
optimization	-11.774354934692383
trie	-11.774592399597168
Fi	-11.774627685546875
keymaps	-11.774690628051758
mms	-11.774940490722656
030.	-11.774943351745605
ori	-11.7752103805542
▁fixtures	-11.775398254394531
regenerate	-11.77573013305664
fact	-11.776116371154785
IF	-11.77635383605957
ima	-11.776362419128418
Concept	-11.776494979858398
MetaCyc	-11.776504516601562
Laser	-11.77659797668457
ein	-11.776697158813477
ious	-11.776745796203613
Portal	-11.776809692382812
Named	-11.777023315429688
168	-11.777146339416504
060	-11.77714729309082
mutex	-11.777948379516602
campaign	-11.778290748596191
inet	-11.778321266174316
__44___	-11.778653144836426
tweet	-11.77866268157959
hisp	-11.779004096984863
annotate	-11.779061317443848
Commit	-11.779114723205566
▁chapter	-11.779483795166016
serd	-11.779723167419434
Conditional	-11.779740333557129
LE	-11.77976131439209
ack	-11.780089378356934
sprint	-11.780255317687988
bulk	-11.780834197998047
XY	-11.78089714050293
mli	-11.781201362609863
_3_01_	-11.781259536743164
DSP	-11.781569480895996
primitives	-11.781609535217285
Any	-11.781864166259766
MacOS	-11.782039642333984
comps	-11.782289505004883
converters	-11.782387733459473
MJRefresh	-11.782962799072266
aggregation	-11.782964706420898
SLOF	-11.782976150512695
ocean	-11.782977104187012
tiwlan	-11.783018112182617
Chunk	-11.783024787902832
cpufreq	-11.783040046691895
Invoice	-11.783129692077637
pipes	-11.78323745727539
expm	-11.783251762390137
Themes	-11.783422470092773
sender	-11.783827781677246
-3.0.	-11.784096717834473
▁language	-11.784260749816895
trees	-11.784284591674805
TestBase	-11.78429889678955
Gtk	-11.784489631652832
lets	-11.784494400024414
Prop	-11.784746170043945
▁Movie	-11.784767150878906
oi	-11.784968376159668
stores	-11.785091400146484
administration	-11.78512191772461
resume	-11.785628318786621
Pdf	-11.785783767700195
webservice	-11.785820960998535
connectors	-11.786418914794922
showcases	-11.786827087402344
expect	-11.786893844604492
purchase	-11.786940574645996
Aggregate	-11.787296295166016
kilda	-11.787313461303711
sflphone	-11.787317276000977
Indirect	-11.787620544433594
mis	-11.788257598876953
bundled	-11.7882719039917
DF	-11.788394927978516
sheka	-11.78881549835205
Slik	-11.789231300354004
Ali	-11.789306640625
120.	-11.789406776428223
vulkan	-11.789473533630371
piece	-11.789960861206055
Routine	-11.789977073669434
335	-11.789985656738281
tcc	-11.79002857208252
▁la	-11.790674209594727
ations	-11.790875434875488
netty	-11.790934562683105
ups	-11.791017532348633
PG	-11.791216850280762
deeplearning	-11.791411399841309
365	-11.791537284851074
translator	-11.79164981842041
English	-11.791654586791992
Accessibility	-11.791670799255371
NewCommunication	-11.791687965393066
Real	-11.791707992553711
snow	-11.791838645935059
lon	-11.791869163513184
_4_2	-11.791899681091309
Relation	-11.791908264160156
environments	-11.792428970336914
AZ	-11.79278564453125
shiro	-11.792923927307129
636	-11.793013572692871
uniq	-11.793196678161621
IHTML	-11.793200492858887
▁dynamic	-11.793316841125488
MVC	-11.793390274047852
smp	-11.793572425842285
Place	-11.79379653930664
Advertising	-11.793835639953613
countdown	-11.794129371643066
Define	-11.794222831726074
iris	-11.79448413848877
026.	-11.795073509216309
-0.7	-11.795075416564941
mad	-11.79590129852295
loops	-11.795976638793945
Aggregator	-11.796005249023438
Dummy	-11.796024322509766
susy	-11.796117782592773
ReactiveObjCDemo	-11.796141624450684
238	-11.796540260314941
tape	-11.796544075012207
Fixed	-11.79694652557373
catch	-11.796953201293945
phi	-11.79697036743164
fig	-11.797338485717773
ight	-11.797392845153809
Hi	-11.797924995422363
Ejemplos	-11.79821491241455
Pagination	-11.798219680786133
eastern	-11.798224449157715
battle	-11.79826831817627
kespi	-11.798462867736816
xyq	-11.798603057861328
DT	-11.798656463623047
relationships	-11.79875659942627
Aware	-11.7991943359375
ification	-11.79991626739502
ying	-11.7999267578125
wse	-11.800165176391602
kl	-11.80029296875
arquillian	-11.80040168762207
duration	-11.800430297851562
freq	-11.800516128540039
▁management	-11.801004409790039
▁design	-11.801602363586426
Bottom	-11.802140235900879
Parent	-11.802196502685547
▁Coo	-11.802380561828613
telemetry	-11.802447319030762
▁Note	-11.802542686462402
thrd	-11.802616119384766
Blur	-11.802617073059082
priest	-11.802634239196777
slik	-11.80275821685791
interceptor	-11.802818298339844
El	-11.802846908569336
ham	-11.802858352661133
258	-11.803312301635742
mmu	-11.803357124328613
curl	-11.803994178771973
RF	-11.804097175598145
288	-11.804301261901855
wr	-11.804330825805664
browse	-11.804750442504883
ZMSharing	-11.804817199707031
DompdfBundle	-11.804826736450195
Gruntfile	-11.804826736450195
convolution	-11.804827690124512
garage	-11.804851531982422
dispatch	-11.80489444732666
seg	-11.805068969726562
that	-11.805191040039062
284	-11.805431365966797
153	-11.80576229095459
_03.	-11.805776596069336
gun	-11.805961608886719
DTO	-11.806105613708496
Head	-11.806397438049316
jump	-11.80643367767334
Threading	-11.806584358215332
▁util	-11.806683540344238
aces	-11.807011604309082
interactive	-11.80717658996582
acp	-11.807273864746094
027.	-11.807796478271484
solvers	-11.808369636535645
hint	-11.808525085449219
ons	-11.808736801147461
openeshop	-11.809123039245605
Overview	-11.809157371520996
vcf	-11.809433937072754
stress	-11.809531211853027
025.	-11.809574127197266
raid	-11.81026840209961
tracks	-11.811033248901367
central	-11.8113431930542
Missing	-11.811476707458496
Capture	-11.811487197875977
reject	-11.81163501739502
ory	-11.811775207519531
asap	-11.812215805053711
mak	-11.81241226196289
AV	-11.812567710876465
installed	-11.812822341918945
nut	-11.812939643859863
Res	-11.813521385192871
308	-11.813563346862793
1_1	-11.813647270202637
Campus	-11.813702583312988
margin	-11.813716888427734
797	-11.814411163330078
nco	-11.814468383789062
Notifications	-11.814685821533203
ben	-11.815019607543945
sur	-11.815707206726074
029.	-11.815739631652832
bro	-11.816225051879883
209	-11.816271781921387
UTF	-11.816364288330078
cnt	-11.81653881072998
736	-11.816849708557129
-0.9.1	-11.817172050476074
zza	-11.8173189163208
Col	-11.817389488220215
Ged	-11.817675590515137
DM	-11.81784725189209
renderers	-11.817999839782715
bios	-11.81801700592041
CodeSniffer	-11.81816577911377
schedoscope	-11.818168640136719
speech	-11.818168640136719
_8_81.0/	-11.818181991577148
Unique	-11.818253517150879
equ	-11.81827163696289
765	-11.818405151367188
Radio	-11.818446159362793
ari	-11.818548202514648
Poll	-11.818646430969238
wolf	-11.818709373474121
Sk	-11.818842887878418
▁Package	-11.819003105163574
Subscriptions	-11.819077491760254
[...]
